00
00
01
01
00
00
00
01
00
02
04
fb
02
05
f9
01
03
fb
fe
fc
fe
05
07
05
fe
fb
fe
03
fa
ff
fa
fb
06
ff
07
02
fe
04
fe
fc
07
fc
fd
05
fe
04
00
fd
01
f9
03
fd
02
02
02
fb
03
03
f9
04
02
fb
03
03
00
02
03
f9
fd
02
fe
00
00
00
00
00
00
00
00
00
00
00
00
00
00
00
00
00
00
00
01
01
02
ff
06
07
ff
03
05
00
00
00
00
00
00
00
00
00
ff
04
04
fd
f9
04
04
fd
fe
fc
f9
fc
03
00
fd
04
06
04
fe
fe
03
f9
fa
05
01
04
02
00
00
00
00
00
00
00
00
00
ff
07
fa
fb
00
05
06
f9
01
01
03
00
03
01
f9
00
fc
fb
fb
fd
01
fe
07
02
02
01
fd
05
07
05
02
01
fe
fc
f9
fa
03
04
01
fb
f9
fc
02
04
02
f9
fc
01
00
fb
01
04
fd
fe
03
fe
fb
01
07
fe
fc
00
03
02
02
fd
fd
07
03
fb
fc
01
04
f9
03
fa
03
03
00
05
fa
fd
07
fd
07
fb
fd
fe
fc
06
fc
00
05
f9
00
07
fa
00
05
01
f9
06
05
01
fa
fa
07
ff
fd
00
03
03
f9
00
03
03
fd
04
fb
00
07
f9
01
05
fc
ff
fa
04
03
04
06
fa
04
f9
01
ff
fd
fe
03
02
fc
05
07
01
