// conv_layers.0  shape=[8, 1, 3, 3]  bits=8
// scale per output channel: [0.01855459250509739, 0.013220148161053658, 0.00859607383608818, 0.0189544465392828, 0.013693086802959442, 0.00722530810162425, 0.004711573012173176, 0.017752347514033318]
20
c6
10
c5
ea
4a
81
61
27
57
5f
e2
81
16
67
fe
91
e1
d8
12
7f
b7
f7
40
ad
c5
5d
b1
45
2c
36
5a
81
34
86
1d
1a
7e
18
81
d2
88
05
58
19
81
82
ba
e9
03
06
74
73
67
6b
2e
db
0b
7c
22
82
50
7f
1b
81
4a
79
be
be
ea
7e
bd

// conv_layers.1  shape=[16, 8, 3, 3]  bits=8
// scale per output channel: [0.005467414855957031, 7.044586709525902e-07, 0.0084840664640069, 0.010961933061480522, 0.007633076049387455, 1.6612968920526328e-06, 0.011462814174592495, 0.006709207780659199, 0.007634416222572327, 3.3884884942381177e-07, 0.008779441006481647, 0.007825320586562157, 6.307104740699288e-07, 9.351586527373001e-07, 0.0077510555274784565, 7.544523441538331e-07]
f8
df
39
e6
e9
43
e0
29
49
fd
95
df
c1
81
c4
e5
95
c6
51
3e
66
37
27
28
1c
0d
1c
e5
db
b2
d5
b3
ba
24
f4
05
13
e0
0e
fd
db
09
00
ee
2a
22
ea
0c
e0
c0
e3
b6
c2
f5
79
e7
01
4f
d0
d8
1f
bf
cb
57
50
b4
22
77
91
29
62
d8
c8
d5
cf
d0
ca
c8
d8
c9
c5
c5
c0
be
b0
96
af
92
92
89
8b
aa
b5
81
8c
a3
ab
8b
a9
b3
b0
ae
a9
a5
bc
a9
9f
a2
e0
ca
e2
c4
a9
ce
bb
db
bd
e4
e0
dc
f3
ee
fc
ea
f0
ef
ba
a1
b3
89
86
94
a9
a0
a6
ff
c5
bf
e5
c5
dd
ca
cd
c7
fd
f4
27
df
7f
d8
04
61
06
eb
f9
2d
cf
88
f6
dd
a4
c0
12
8c
0f
fc
ac
15
15
1a
2c
4a
7c
e8
3c
5f
e9
2d
ed
10
ec
ce
0b
f5
e4
e6
18
d6
02
f8
e6
2c
bf
ef
12
de
e8
c0
00
f3
3c
f6
cc
32
18
d8
e8
ed
e1
03
08
c9
48
ec
ef
53
7f
ea
2b
42
0a
24
d2
dc
c2
06
e6
fa
fa
b9
f6
eb
f5
00
00
10
f5
14
00
02
ec
ea
ee
fe
fd
07
d5
23
ff
e3
f7
e4
0c
00
2d
0b
07
16
05
07
fa
f3
eb
eb
e9
e4
f5
16
31
19
c4
e9
f8
ce
d0
03
f4
00
08
0c
54
0f
38
2e
e4
e4
bf
c0
d8
e1
23
87
86
c1
b1
b0
fd
ea
12
20
ed
e7
18
1a
0a
24
da
f1
2a
b8
cb
19
d0
df
24
01
0c
12
a4
a7
ec
c9
cd
0f
fb
19
10
e6
fd
1e
e4
fa
05
62
60
1d
0c
fe
06
1f
26
20
07
11
3c
c2
d1
f7
c6
d4
f9
f5
3b
7f
91
d4
6b
a8
c1
46
df
de
e5
d5
c9
d8
cb
c8
d4
bf
b4
b3
9f
8d
90
9b
90
9d
8b
81
94
83
83
8b
96
95
97
a0
98
a8
9b
8f
9f
a4
9c
a1
cf
ca
cb
b6
b3
b6
b7
b8
c4
ff
fe
fe
f1
e8
e9
ee
ec
e2
8c
83
98
98
83
9d
98
97
9b
ef
da
dc
ef
c5
d3
dd
c8
d4
12
03
0d
0e
eb
0e
10
ff
cc
ed
40
12
e3
e9
7f
03
17
06
f4
f7
ef
ee
ea
0f
07
00
f3
00
e1
eb
ea
de
d5
eb
ea
f7
ff
e7
0d
d4
01
fc
ef
d7
fb
16
e6
f3
ee
24
c8
eb
04
34
e1
ea
02
0a
12
04
0a
22
06
25
06
2c
35
74
00
12
ef
20
f6
81
bb
de
8d
b0
02
a7
f0
48
2a
30
0d
38
2c
0d
36
34
fe
e3
1c
b6
b5
f3
00
fa
21
28
c7
15
cf
a6
0a
f8
d5
39
66
26
72
53
45
64
20
01
0c
0f
27
2a
26
27
27
2d
41
3b
ed
dd
1a
f8
ce
fa
1d
1a
36
00
81
d8
fb
82
c5
ee
a4
f3
ed
ea
fe
d9
0b
0e
f7
21
0c
e9
7a
76
db
ec
2a
07
0b
0e
0e
fb
f5
e6
d1
18
f4
07
12
3c
7f
fd
02
19
c2
df
e6
d1
04
4c
25
f2
10
fb
f5
f3
07
f8
f1
ff
a5
d5
cb
ef
06
e4
17
1f
0e
0b
f4
e1
e1
c5
b5
d8
dc
ee
f5
c3
ff
d6
f3
11
a4
99
96
ba
b8
f4
bd
f6
fc
b9
c3
b5
97
8d
9b
bf
87
9d
a3
ad
81
f4
eb
fe
0c
14
10
c5
82
b1
ce
be
e0
cd
af
be
89
9a
8a
f3
e8
e3
f0
f9
bb
8c
9b
b0
2f
2d
ed
b2
9e
d8
ad
c4
e1
f0
b0
0c
b5
b9
d9
bc
ae
cd
d8
a5
bf
9e
a5
9b
e6
9e
c3
01
bc
de
48
2e
2a
03
df
f7
0f
ce
cd
16
fe
03
ed
d2
f9
04
de
ef
2a
09
17
d4
b3
e0
dd
ab
f2
1f
1c
4d
c5
a3
c1
0c
f5
0d
14
08
15
bd
b8
cc
02
fc
0a
29
43
4f
f3
e3
ee
25
fd
fa
4c
3c
38
f0
81
b0
1c
b5
ca
4e
02
21
58
34
1a
4c
17
e7
1e
f4
0a
41
fa
ed
e5
c4
ec
da
11
0a
f8
2a
2e
e3
ff
fa
e7
07
fd
ce
b7
11
c2
e4
22
db
20
16
29
ea
e0
eb
ab
c6
bc
a2
c7
38
4e
1f
68
0e
b6
58
f9
c8
0c
1b
2b
f7
00
11
fa
10
fb
d9
ad
dd
91
81
df
c0
da
15
22
e6
e2
fe
d5
c1
e6
ce
c5
e3
c3
a5
87
9d
90
81
a6
9d
bb
a5
b8
a0
a2
a4
ae
ca
c7
b9
a8
bf
c0
c3
ae
a4
c2
a8
d1
d0
bc
d1
c6
c7
b6
c3
cd
ee
00
1b
1a
ce
ea
f9
d8
c4
b9
ad
d4
cc
b0
d6
d9
d5
be
f5
ff
00
ed
ee
0c
d1
e3
e5
fa
ec
fa
ea
e6
e0
eb
eb
ed
ae
9d
a1
9c
89
81
b5
9f
9d
ab
96
b5
a3
94
9a
aa
9f
c2
ba
b1
aa
99
8f
b1
c9
a0
bc
dc
bf
d3
c2
be
d1
c5
c7
c6
eb
f3
fd
e4
e0
da
dd
f0
eb
a6
9d
b8
a1
a0
a3
b0
ae
ab
f5
ca
e0
ea
bd
cd
e0
da
d7
1e
18
06
12
0d
7f
19
16
d0
ed
04
f4
0a
04
b0
0b
f4
e8
d7
dc
cc
cc
e3
e1
d7
b3
b7
52
5c
51
7a
64
38
20
31
72
1d
02
e3
d8
1b
ff
14
f6
ee
fb
14
00
ee
fa
2a
1e
59
05
f4
e9
04
ee
fa
13
fc
17
05
fb
06
0c
fc
e9
a9
e5
b7
af
ec
e4
ff
dc
da
f8
d7
d2
eb
b8
d6
d7
a2
a8
a3
aa
ae
96
9e
9f
8e
9e
90
9a
aa
81
a2
b3
ae
9c
91
8f
a0
b4
a3
b2
d8
b0
c6
c3
a7
ca
c6
c3
d5
ec
df
ff
fd
eb
fb
db
fb
de
ab
98
9d
93
89
9d
95
a1
b3
16
cd
eb
e4
d4
db
d7
bc
d8

// conv_layers.2  shape=[32, 16, 3, 3]  bits=8
// scale per output channel: [0.0061585986986756325, 0.0055714258924126625, 0.0054125431925058365, 0.006019853055477142, 0.005522005259990692, 0.005796448793262243, 0.00465542683377862, 0.007099087815731764, 0.01199843268841505, 0.004908266477286816, 0.0056848363019526005, 0.007485177367925644, 0.004377839621156454, 0.006083139218389988, 0.0056832474656403065, 0.006756009068340063, 0.007574436720460653, 0.0038590217009186745, 0.005209263879805803, 0.0050458828918635845, 0.007227507419884205, 0.0065477401949465275, 0.003678693436086178, 0.004078899975866079, 0.004561868030577898, 0.00309633556753397, 0.005002463702112436, 0.004968343768268824, 0.0062734950333833694, 0.005108683370053768, 0.00412111496552825, 0.004874927457422018]
38
ec
e3
2b
11
1d
f9
dc
fa
00
00
00
00
00
00
00
00
00
fc
27
c7
1d
fd
e4
f5
21
0b
fd
f5
21
1d
1c
10
0a
f1
f2
32
94
03
2b
9c
0c
ef
e6
d4
00
00
00
00
00
00
00
00
00
0d
0f
16
d3
dd
e8
f5
13
1f
e5
b0
7f
c1
a4
36
f9
c8
38
e0
e8
06
f8
e8
29
e9
cf
fa
00
00
00
00
00
00
00
00
00
0e
21
23
dd
fb
16
de
e8
11
0b
22
e9
e6
e8
16
e6
ce
f4
00
00
00
00
00
00
00
00
00
00
00
00
00
00
00
00
00
00
13
fe
17
e6
e0
d9
19
1c
06
00
00
00
00
00
00
00
00
00
ff
e7
ee
d2
a0
ca
0f
b7
c8
00
00
00
00
00
00
00
00
00
ee
0f
5b
c4
bc
f9
bf
be
b9
05
1f
eb
1b
0e
7f
ee
06
df
19
cd
ad
40
2f
dc
28
4b
53
00
00
00
00
00
00
00
00
00
06
f2
0c
38
37
2c
c5
ce
f6
21
0c
cf
0a
17
8a
1c
21
bc
d9
fc
5b
f7
fc
22
05
fb
d7
00
00
00
00
00
00
00
00
00
db
ca
d9
a6
c0
c2
1b
20
f5
ce
de
c0
ce
d8
dc
0d
32
16
00
00
00
00
00
00
00
00
00
00
00
00
00
00
00
00
00
00
f1
ef
b7
e2
05
7e
fc
d1
c5
00
00
00
00
00
00
00
00
00
b7
c4
c5
ae
d3
03
c3
d5
ed
00
00
00
00
00
00
00
00
00
db
f9
ed
cf
f8
ed
02
0d
4f
fb
f5
ee
f3
1c
2b
d7
f2
33
11
f6
0c
e2
f2
f0
d5
b9
d2
00
00
00
00
00
00
00
00
00
42
1f
5b
07
5c
15
ec
d6
b8
f4
d4
d0
fc
cf
b4
01
de
db
3e
fe
d8
fd
07
d9
d8
e9
00
00
00
00
00
00
00
00
00
00
c8
cf
06
e6
bd
c2
04
d3
b7
b7
c8
c7
d7
07
02
08
40
fd
00
00
00
00
00
00
00
00
00
00
00
00
00
00
00
00
00
00
fa
b8
b6
34
08
b5
3e
55
7f
00
00
00
00
00
00
00
00
00
f6
f3
15
29
04
14
29
03
0b
00
00
00
00
00
00
00
00
00
ec
ca
f3
01
ee
ee
ee
ef
e7
f3
04
1d
3d
f6
f8
18
fe
f7
d4
01
16
10
15
25
f9
13
0b
00
00
00
00
00
00
00
00
00
7f
10
df
1c
08
d9
11
d0
e0
03
22
27
bb
ef
f6
ea
1e
de
43
33
e1
fa
25
0a
e3
ed
01
00
00
00
00
00
00
00
00
00
1f
cc
b1
eb
df
e6
de
e4
ca
f2
08
fb
0a
04
0a
0f
f3
02
00
00
00
00
00
00
00
00
00
00
00
00
00
00
00
00
00
00
ee
d8
d8
fb
bf
a4
f1
b9
be
00
00
00
00
00
00
00
00
00
ce
8d
97
e0
a2
8e
03
c6
c0
00
00
00
00
00
00
00
00
00
38
fb
d2
1e
b9
c3
ea
c9
01
ee
12
ed
e2
c6
d5
01
b9
ba
ee
dd
05
eb
df
15
29
fd
ec
00
00
00
00
00
00
00
00
00
fa
e7
17
2b
44
21
7f
0f
28
df
f4
09
d4
f0
0b
08
f3
df
ed
20
2d
28
01
f4
3a
fc
e4
00
00
00
00
00
00
00
00
00
f9
ec
12
9d
ed
fd
f6
01
25
1d
e9
c1
df
dc
c6
f4
cc
d8
00
00
00
00
00
00
00
00
00
00
00
00
00
00
00
00
00
00
54
52
f8
22
13
eb
d5
aa
c4
00
00
00
00
00
00
00
00
00
c3
df
ff
08
e4
dd
19
dd
05
00
00
00
00
00
00
00
00
00
e4
d2
b3
0b
dc
c7
1c
0b
ed
c6
b9
dc
eb
d8
ec
fe
2f
37
bd
05
13
f7
d7
e2
18
05
d9
00
00
00
00
00
00
00
00
00
d0
e9
57
eb
1e
26
ea
38
28
d4
08
db
bf
c3
bf
9f
c8
e4
3e
0a
fb
13
23
f6
c8
39
e5
00
00
00
00
00
00
00
00
00
e7
39
14
d3
e1
06
d6
e8
f2
44
3a
cc
26
0e
26
f5
e6
34
00
00
00
00
00
00
00
00
00
00
00
00
00
00
00
00
00
00
7f
df
b7
2d
3c
b1
d9
37
e7
00
00
00
00
00
00
00
00
00
0a
81
e1
2d
03
1f
23
ff
cd
00
00
00
00
00
00
00
00
00
19
f7
c8
37
1b
0b
0f
d8
e1
e0
b7
ee
ed
f8
f0
fd
33
44
16
d7
ca
14
05
ad
e9
12
ea
00
00
00
00
00
00
00
00
00
df
1f
f8
ea
25
00
fd
65
30
d3
ac
2f
9d
c7
2b
e6
9e
50
c3
10
16
a4
2a
4d
ef
33
30
00
00
00
00
00
00
00
00
00
61
c8
85
23
ba
8e
e6
e9
e4
09
ec
c6
16
da
89
0a
d9
b0
00
00
00
00
00
00
00
00
00
00
00
00
00
00
00
00
00
00
f6
2a
12
cc
fc
f3
cc
16
2a
00
00
00
00
00
00
00
00
00
13
f5
17
16
ff
2e
02
d4
de
00
00
00
00
00
00
00
00
00
f3
f9
02
ef
da
ec
d6
c8
cb
f7
f4
e5
07
ff
19
07
0c
de
f2
f6
1d
e4
f8
16
f1
ee
cc
00
00
00
00
00
00
00
00
00
19
f4
c8
16
28
18
0e
22
08
d7
e4
eb
f7
c3
ed
54
07
ca
f2
f0
06
f3
fc
10
e7
07
f7
00
00
00
00
00
00
00
00
00
0d
43
13
c9
28
7f
d8
ec
32
cf
ee
02
bf
d4
0f
e4
de
ce
00
00
00
00
00
00
00
00
00
00
00
00
00
00
00
00
00
00
f0
ec
d9
09
ea
e7
1a
32
fb
00
00
00
00
00
00
00
00
00
e8
ca
de
f4
f6
0c
fb
e4
00
00
00
00
00
00
00
00
00
00
ea
07
fb
e5
7f
fb
ce
e2
0e
03
f1
f6
f3
01
10
ed
18
1f
15
ec
0b
fc
d2
e9
10
03
f4
00
00
00
00
00
00
00
00
00
f3
07
09
ee
fe
ff
f1
fc
ec
0c
fe
ed
26
cf
ea
36
d3
f3
00
05
01
e3
38
eb
0d
dc
f2
00
00
00
00
00
00
00
00
00
fc
f5
ef
18
de
f6
11
dd
f9
05
03
ed
f7
f0
dd
f8
f4
1a
00
00
00
00
00
00
00
00
00
00
00
00
00
00
00
00
00
00
14
0b
ff
f1
d3
fb
f2
f1
23
00
00
00
00
00
00
00
00
00
f7
eb
07
f5
e8
e5
9f
98
94
00
00
00
00
00
00
00
00
00
de
0c
16
c7
fb
c8
b1
a7
ba
f0
db
05
ff
06
10
36
1e
13
fd
f7
ca
dd
d8
cb
ec
da
0e
00
00
00
00
00
00
00
00
00
d9
eb
ee
fc
12
1d
35
1b
19
39
00
cb
ed
f8
04
b1
10
63
1a
05
fb
1a
04
d2
00
06
f2
00
00
00
00
00
00
00
00
00
27
25
40
3f
f1
81
01
d8
d1
bc
d3
f0
c1
ef
d1
fe
33
fa
00
00
00
00
00
00
00
00
00
00
00
00
00
00
00
00
00
00
bf
ef
fd
29
3b
43
24
21
25
00
00
00
00
00
00
00
00
00
11
08
10
fb
f3
e5
f7
0b
ff
00
00
00
00
00
00
00
00
00
14
07
03
f3
ff
07
0d
0b
f1
f3
f9
fa
d2
ce
f2
d3
dd
e5
d2
35
10
d8
d4
09
d7
e3
ec
00
00
00
00
00
00
00
00
00
01
fa
7f
09
e5
f7
e7
ec
fc
ef
0a
f1
c8
d5
d6
da
e4
ed
0e
15
50
b1
d4
21
de
03
10
00
00
00
00
00
00
00
00
00
e7
cb
15
fe
f2
dc
26
00
0d
12
d5
db
f9
f8
e3
2d
16
00
00
00
00
00
00
00
00
00
00
00
00
00
00
00
00
00
00
00
0b
0e
03
d3
f2
30
eb
03
37
00
00
00
00
00
00
00
00
00
d4
df
09
10
2a
ef
03
cb
fa
00
00
00
00
00
00
00
00
00
7f
ca
b5
37
f7
b8
f1
fa
c3
e8
da
f8
13
11
d3
07
0d
f9
ca
10
12
ef
c2
f0
3a
ea
1b
00
00
00
00
00
00
00
00
00
3d
1e
e3
01
06
d1
1f
02
db
c4
c6
3c
bc
ee
54
c5
f3
3a
3f
09
fb
01
c2
19
cf
f1
1d
00
00
00
00
00
00
00
00
00
f5
d7
32
be
e6
26
dc
00
1a
10
e8
ed
f0
d0
f7
f0
07
f8
00
00
00
00
00
00
00
00
00
00
00
00
00
00
00
00
00
00
f1
ca
f9
d4
fb
29
01
0f
f3
00
00
00
00
00
00
00
00
00
14
1c
32
fc
ed
03
e7
0d
ed
00
00
00
00
00
00
00
00
00
01
ce
0d
df
ed
f1
ea
07
2c
17
43
44
f7
10
07
d0
e9
fa
d1
f1
fd
ca
f0
00
d0
dc
ed
00
00
00
00
00
00
00
00
00
25
f1
23
0c
c3
f7
03
eb
2d
fb
b7
c5
e5
b3
b9
e4
96
b4
7f
e9
15
21
f4
cb
fb
fc
fd
00
00
00
00
00
00
00
00
00
0d
c0
c4
f8
d6
fa
23
f1
2d
39
30
0d
01
6f
0f
19
6a
0a
00
00
00
00
00
00
00
00
00
00
00
00
00
00
00
00
00
00
e7
94
f6
04
92
c6
56
e4
fb
00
00
00
00
00
00
00
00
00
f8
e6
d2
26
f7
17
0b
f7
f8
00
00
00
00
00
00
00
00
00
dd
d7
f6
ec
d8
25
cf
c6
1f
d6
ed
f4
d0
dd
e6
cc
d3
e7
0a
fd
ef
08
15
f8
dc
dc
d8
00
00
00
00
00
00
00
00
00
f9
d2
b4
25
c2
a1
58
15
ce
f8
03
fe
ee
0c
ed
2e
39
2c
e4
e5
f9
dd
dd
0b
ea
eb
03
00
00
00
00
00
00
00
00
00
3a
02
0d
f2
1f
e6
21
19
0d
f4
e0
0c
e2
ea
07
d2
f4
1a
00
00
00
00
00
00
00
00
00
00
00
00
00
00
00
00
00
00
d3
ca
fe
ab
ca
3c
d3
21
7f
00
00
00
00
00
00
00
00
00
08
d6
e8
20
e2
ed
e9
0b
e7
00
00
00
00
00
00
00
00
00
ea
2a
23
ec
2c
18
e1
e5
f8
1c
0a
21
3f
1b
fc
49
04
f7
ec
12
da
e5
fb
d8
d5
ea
e7
00
00
00
00
00
00
00
00
00
e7
d9
eb
fc
c0
28
0a
5e
7f
ef
d0
c7
c6
ab
b9
df
be
d2
d8
e1
07
c4
de
dc
fd
f2
e1
00
00
00
00
00
00
00
00
00
f0
d0
db
df
bc
c4
d9
db
f2
f9
fe
31
f2
c8
df
e2
c8
d7
00
00
00
00
00
00
00
00
00
00
00
00
00
00
00
00
00
00
1e
17
17
d2
10
32
f2
d5
de
00
00
00
00
00
00
00
00
00
e3
d5
02
fa
03
15
e4
0b
1a
00
00
00
00
00
00
00
00
00
e8
d0
f8
fe
ed
04
fa
11
15
fd
07
1b
3b
4d
1b
0d
f5
e1
ec
b6
e3
b3
d1
e5
d7
0e
d7
00
00
00
00
00
00
00
00
00
0c
f2
e5
ff
f5
fb
1e
0e
05
7f
03
92
08
a9
c0
2d
e2
e9
34
54
e7
21
e0
ee
fd
fd
0e
00
00
00
00
00
00
00
00
00
05
fd
01
ef
ed
f8
ee
e5
ea
d8
1c
37
c1
dd
f3
e8
fd
dc
00
00
00
00
00
00
00
00
00
00
00
00
00
00
00
00
00
00
13
f8
c4
0a
18
c8
0b
48
f3
00
00
00
00
00
00
00
00
00
dc
d6
ed
b2
90
9e
f4
f0
fe
00
00
00
00
00
00
00
00
00
e0
bd
df
bb
cd
e2
0e
7f
34
42
4c
5c
04
e5
e9
f6
02
10
f0
f3
12
30
2b
02
02
e3
f5
00
00
00
00
00
00
00
00
00
0d
06
1a
ff
06
00
fe
08
06
c0
15
ec
d3
0d
fd
21
e4
f8
0d
19
09
f9
07
03
01
1b
fd
00
00
00
00
00
00
00
00
00
d2
fa
e9
0e
03
ff
29
1b
09
d2
e7
f7
06
07
f9
e4
ea
e1
00
00
00
00
00
00
00
00
00
00
00
00
00
00
00
00
00
00
29
0f
00
26
f4
d9
00
cd
e4
00
00
00
00
00
00
00
00
00
f9
e4
08
19
bf
dd
1d
bc
ef
00
00
00
00
00
00
00
00
00
21
d3
f2
03
f7
f5
f7
09
f8
1e
20
03
31
17
f3
eb
dc
ee
e7
b5
b9
18
bc
be
14
d6
c8
00
00
00
00
00
00
00
00
00
2a
03
e1
7f
c1
d2
58
22
fa
b6
bb
cc
dd
b1
b1
de
c9
cb
1e
a0
b5
fa
90
83
0c
e4
c7
00
00
00
00
00
00
00
00
00
f8
d6
be
13
fe
cf
1c
ec
27
30
bb
ef
f5
e8
e0
00
18
20
00
00
00
00
00
00
00
00
00
00
00
00
00
00
00
00
00
00
3c
01
fc
1d
11
1d
0a
02
58
00
00
00
00
00
00
00
00
00
0e
d7
e6
e1
a9
ca
ca
c1
c9
00
00
00
00
00
00
00
00
00
19
06
fe
f3
eb
f8
17
09
5a
13
2c
2e
10
ff
18
e8
ce
ef
e8
0e
01
28
38
29
fb
fb
ea
00
00
00
00
00
00
00
00
00
d8
cb
e3
a2
81
ad
8d
a9
b6
0a
1b
c5
ff
e4
dc
c0
f9
38
0c
29
21
18
12
ec
d2
eb
1e
00
00
00
00
00
00
00
00
00
f4
c5
dc
e9
dd
04
35
1d
21
e3
e8
14
ed
0f
35
36
22
04
00
00
00
00
00
00
00
00
00
00
00
00
00
00
00
00
00
00
26
18
37
44
3b
2c
43
fe
11
00
00
00
00
00
00
00
00
00
d4
c2
f8
e7
cf
e7
f7
eb
ed
00
00
00
00
00
00
00
00
00
f7
ed
1e
e7
f1
05
e8
dd
f8
0e
30
47
e4
ea
0f
fe
dd
ef
7f
41
36
0c
46
2b
eb
cf
14
00
00
00
00
00
00
00
00
00
d6
16
06
ad
d9
03
cb
ca
c0
c1
e6
1c
e0
eb
05
f1
ec
0d
00
26
0c
cf
fa
0b
ce
d4
ef
00
00
00
00
00
00
00
00
00
f9
cf
e2
51
e0
e6
4a
3d
10
f8
27
4c
d5
e0
1f
03
e0
02
00
00
00
00
00
00
00
00
00
00
00
00
00
00
00
00
00
00
f1
1d
27
d3
d1
f7
f1
cf
b9
00
00
00
00
00
00
00
00
00
f6
f0
11
e9
fc
0b
eb
ed
0c
00
00
00
00
00
00
00
00
00
f7
14
08
f2
16
fc
db
ff
f1
18
01
0c
ea
f1
14
ed
ee
fc
f4
09
0e
e7
fc
09
ec
fd
0a
00
00
00
00
00
00
00
00
00
20
df
cb
06
d2
dc
2f
0d
e6
0c
ed
0a
02
e6
f9
0c
0a
0b
1a
f3
f1
3a
d7
ed
09
ec
fd
00
00
00
00
00
00
00
00
00
12
c4
cd
dd
15
1d
fb
00
1e
03
f9
19
18
7f
f1
0d
eb
f9
00
00
00
00
00
00
00
00
00
00
00
00
00
00
00
00
00
00
19
fc
b8
51
10
d0
e4
d4
f6
00
00
00
00
00
00
00
00
00
ff
f6
07
08
e7
f8
f9
d2
e2
00
00
00
00
00
00
00
00
00
24
fd
35
ec
f5
1a
e8
dd
e2
27
4d
2a
1f
ef
16
e4
d7
fc
b3
7f
f3
ef
08
cc
f2
0d
f5
00
00
00
00
00
00
00
00
00
f5
0a
18
11
d6
f4
ef
ea
15
06
49
bb
cd
38
c3
0b
48
ed
ef
07
cb
d2
e2
e4
ce
dd
e7
00
00
00
00
00
00
00
00
00
ed
e1
f1
e4
e2
bc
fc
e8
e0
fa
1e
ba
c9
ee
d5
ec
0a
db
00
00
00
00
00
00
00
00
00
00
00
00
00
00
00
00
00
00
36
00
ec
ed
f5
ff
09
e8
01
00
00
00
00
00
00
00
00
00
d9
ce
ff
eb
d8
0e
c8
c9
f1
00
00
00
00
00
00
00
00
00
8e
a8
ac
ba
a1
aa
a2
b6
bf
9d
b3
d1
a2
97
9c
c3
d6
de
c8
d1
d0
f9
fb
0a
4f
32
ec
00
00
00
00
00
00
00
00
00
1c
12
ec
f3
0d
20
d7
15
e7
42
3b
5e
81
17
43
5d
15
dc
57
40
31
f9
53
60
4c
39
88
00
00
00
00
00
00
00
00
00
92
84
81
f6
17
f7
ec
07
45
1d
ef
d7
15
62
52
dc
2f
57
00
00
00
00
00
00
00
00
00
00
00
00
00
00
00
00
00
00
f0
f1
ff
c9
cd
e8
05
ea
e3
00
00
00
00
00
00
00
00
00
28
dc
23
0f
01
43
f2
11
2e
00
00
00
00
00
00
00
00
00
f8
03
34
fd
03
7d
00
78
6a
22
f2
f7
1f
03
e0
08
b9
f5
1f
f5
06
0d
0c
c3
e9
dd
a4
00
00
00
00
00
00
00
00
00
cf
a4
cb
dc
b4
f8
c2
d6
2d
cd
10
0b
ea
1d
df
e1
ed
b1
ce
d3
e5
c5
cc
d5
df
fa
d8
00
00
00
00
00
00
00
00
00
d3
fd
46
e9
42
1b
7f
4e
e2
d1
39
04
e9
18
1b
e6
e3
05
00
00
00
00
00
00
00
00
00
00
00
00
00
00
00
00
00
00
c3
d9
04
d7
db
cd
02
03
08
00
00
00
00
00
00
00
00
00
01
d5
ee
fa
d7
fa
f8
e9
11
00
00
00
00
00
00
00
00
00
fc
e6
ee
f9
d7
ed
ec
d5
e3
3f
e1
f9
7d
fd
03
20
fb
fa
e2
c0
c3
c4
cd
d4
eb
d6
ec
00
00
00
00
00
00
00
00
00
e1
e5
c4
da
cf
bc
14
f6
e4
44
2a
ae
12
f5
bc
17
fb
f6
37
15
03
03
dd
f8
d9
de
ce
00
00
00
00
00
00
00
00
00
15
ce
e3
2c
38
32
f1
12
fe
34
c2
e5
7f
ee
fe
ef
e0
ec
00
00
00
00
00
00
00
00
00
00
00
00
00
00
00
00
00
00
1b
f5
d1
01
ce
ce
0d
dd
e0
00
00
00
00
00
00
00
00
00
95
90
dc
a9
b3
d3
aa
b8
07
00
00
00
00
00
00
00
00
00
00
c0
40
fc
11
48
fb
fd
21
00
d7
fa
e2
d8
0f
e1
e5
f5
90
b4
76
9e
90
47
8a
a6
37
00
00
00
00
00
00
00
00
00
3f
1d
29
19
06
0c
69
1c
76
99
94
a3
ab
b7
d7
d0
df
ee
b3
89
bc
97
87
e3
f1
fb
f0
00
00
00
00
00
00
00
00
00
b2
9a
c6
a9
8b
89
c3
cf
f8
c8
81
c2
d6
9d
b1
27
ae
a8
00
00
00
00
00
00
00
00
00
00
00
00
00
00
00
00
00
00
42
fa
45
2b
f9
7e
13
ff
7c
00
00
00
00
00
00
00
00
00
fc
f4
c7
c3
ce
db
e4
fd
19
00
00
00
00
00
00
00
00
00
f5
f9
e2
c9
d2
0c
d6
06
55
16
0c
f7
eb
f1
bb
99
b7
f7
cd
e8
f2
1c
25
e9
05
1b
fe
00
00
00
00
00
00
00
00
00
14
20
0e
df
d3
af
94
92
c1
e4
d5
f7
f4
fd
c2
27
1d
81
d0
0e
39
ea
47
60
f4
60
21
00
00
00
00
00
00
00
00
00
97
f4
04
ca
c7
e5
ed
e5
ef
f4
17
fb
f9
18
e8
e2
0c
5a
00
00
00
00
00
00
00
00
00
00
00
00
00
00
00
00
00
00
3a
27
13
2f
1b
19
21
1d
1e
00
00
00
00
00
00
00
00
00
05
bb
01
28
0d
ed
36
d9
da
00
00
00
00
00
00
00
00
00
ec
b2
0b
e6
eb
cd
fc
f2
fc
10
f3
05
0d
09
d9
08
ec
c8
ec
ff
e0
db
26
2e
e0
0c
ea
00
00
00
00
00
00
00
00
00
19
4d
46
ff
6e
7f
d8
14
2f
ec
ce
ff
09
d4
08
ef
18
e3
09
f4
1a
fc
04
27
ee
15
2a
00
00
00
00
00
00
00
00
00
c3
c5
ef
38
00
e6
22
02
f1
e5
e1
c4
ef
e9
d1
d3
cf
d9
00
00
00
00
00
00
00
00
00
00
00
00
00
00
00
00
00
00
91
9c
d6
bd
96
97
c8
fe
06
00
00
00
00
00
00
00
00
00
fd
df
05
1b
df
f9
23
e7
ea
00
00
00
00
00
00
00
00
00
e2
c8
0d
f6
e6
21
e9
ee
22
3f
0b
fd
22
f3
fa
1e
f6
05
d4
e4
53
e3
df
4d
f8
ef
7f
00
00
00
00
00
00
00
00
00
d6
d2
f0
e5
d2
04
f5
ce
f7
d1
2a
08
cf
22
0e
ce
0a
11
e7
fc
05
e9
ff
f1
db
f0
f5
00
00
00
00
00
00
00
00
00
ee
cb
df
f5
e5
cd
1c
fd
d8
0d
cd
c1
ea
dd
dd
06
ed
f1
00
00
00
00
00
00
00
00
00
00
00
00
00
00
00
00
00
00
f0
f7
33
e8
ee
25
cd
fe
2f
00
00
00
00
00
00
00
00
00
ea
0e
ff
e5
b6
e9
eb
d0
e1
00
00
00
00
00
00
00
00
00
24
fd
01
e5
95
f0
fb
ff
0a
eb
48
44
c3
b4
f4
af
db
d4
06
d7
dd
da
02
f0
0c
01
03
00
00
00
00
00
00
00
00
00
3d
48
24
27
18
07
f9
e9
f8
c1
db
8b
c1
19
da
c2
d8
d6
fb
0f
ea
c8
ca
ca
ff
ec
e4
00
00
00
00
00
00
00
00
00
f7
50
ec
df
e4
d1
07
18
fb
20
e7
2b
44
16
31
21
51
1c
00
00
00
00
00
00
00
00
00
00
00
00
00
00
00
00
00
00
c9
74
3a
81
dd
4b
ad
c2
f7
00
00
00
00
00
00
00
00
00
0a
bf
01
fb
17
21
fc
cd
dd
00
00
00
00
00
00
00
00
00
15
bb
3d
f4
ed
53
d6
2c
09
10
d3
d9
f5
ee
0f
c9
f7
3f
48
08
fc
7f
56
af
fc
d5
b6
00
00
00
00
00
00
00
00
00
24
5a
c0
2d
41
b9
fa
0d
e5
e9
c6
f0
17
af
e3
2d
ba
11
ea
d2
b6
d6
d2
bd
fc
f9
f8
00
00
00
00
00
00
00
00
00
d5
0c
16
ea
d6
df
22
d6
f3
ee
bb
20
30
9f
2f
d9
d1
09
00
00
00
00
00
00
00
00
00
00
00
00
00
00
00
00
00
00
10
b9
79
d9
a8
39
fc
3c
fa
00
00
00
00
00
00
00
00
00
f1
02
e3
f0
fe
fb
27
9b
23
00
00
00
00
00
00
00
00
00
fe
fe
e1
ee
d0
0b
4b
13
20
f2
f6
e8
0b
1d
08
13
26
03
d0
f4
e1
c7
e9
e4
a3
07
25
00
00
00
00
00
00
00
00
00
fa
07
0f
da
c8
c1
05
45
1b
1a
0f
e6
b5
b7
aa
a3
69
f2
30
ed
14
28
3f
2c
d6
f0
bd
00
00
00
00
00
00
00
00
00
f4
fd
ea
bf
c0
db
26
7f
00
39
f3
55
d5
ba
d2
d8
de
c9
00
00
00
00
00
00
00
00
00
00
00
00
00
00
00
00
00
00
0d
f1
17
f2
c5
d1
0d
2d
f2
00
00
00
00
00
00
00
00
00

// fc_layers.0  shape=[64, 512]  bits=8
// scale per output channel: [0.004645142238587141, 0.004765674937516451, 0.0025750198401510715, 0.0026032975874841213, 0.0036746554542332888, 2.4701951133465627e-06, 3.7744780456705485e-07, 6.127507276687538e-06, 8.787121430486877e-08, 1.2782103908648423e-07, 0.0027445622254163027, 0.0019357535056769848, 0.003582351841032505, 0.0023155692033469677, 5.563460376833973e-07, 1.7627311876822205e-07, 3.896069245001854e-07, 1.0143165127374232e-05, 1.4468625408881053e-07, 5.222202162258327e-06, 6.673435564152896e-07, 0.003734488971531391, 0.003707441035658121, 7.830925596863381e-07, 1.391400559214162e-07, 3.1192396932056e-07, 0.0027768081054091454, 1.8469971507784066e-07, 2.342037078051362e-06, 0.0024729829747229815, 3.179420446031145e-06, 1.907788629296192e-07, 0.0038764660712331533, 0.0031546892132610083, 6.751877776878246e-07, 0.003337537869811058, 0.00444585969671607, 0.0018571182154119015, 1.377883194209062e-07, 3.3318551118100004e-07, 3.1640405495636514e-07, 0.003484488930553198, 2.780883789910149e-07, 4.353983626970148e-07, 1.2933702464579255e-07, 0.0019282139837741852, 0.002433689311146736, 2.6803317609847e-07, 1.612337001688502e-07, 0.0016718351980671287, 0.0037083569914102554, 0.001814590417779982, 3.3408218769181985e-07, 1.0919532655861985e-07, 1.1711564695815468e-07, 4.015293484371796e-07, 0.0025142438244074583, 0.002817049389705062, 3.115178333246149e-05, 3.7535737646976486e-06, 0.003298156661912799, 0.0023672538809478283, 0.0023228684440255165, 0.0017521415138617158]
ef
1b
02
0b
1a
1b
08
f4
f4
e9
c9
ef
e3
e2
f2
fd
05
0a
2b
e5
04
fe
35
fc
4e
4a
36
0d
01
43
12
bd
03
fd
0c
0b
f3
05
d6
e5
cb
d7
d1
ee
e9
e6
e9
e6
de
f4
f7
e8
f4
1c
ed
e0
0f
f6
e7
e7
f0
fb
dd
eb
06
ea
0c
04
ef
f2
07
e6
f3
c2
de
dd
e6
e4
dc
dd
02
f5
f5
04
f6
dd
dc
06
fa
01
14
fd
0a
f3
f2
ef
17
1b
1d
0d
41
02
f8
f7
35
18
13
01
e7
1d
02
f2
0c
fe
22
18
f6
f7
ee
e2
ff
ef
ec
db
01
01
02
d3
1d
04
03
18
07
0d
1a
2b
09
78
6a
2f
f4
1f
e5
da
24
2d
ff
ec
fa
e9
f4
db
00
04
0e
0d
e1
e8
0a
f7
fc
05
06
07
00
e9
eb
05
f5
ed
de
fb
ec
ea
ff
fc
f9
2d
01
03
12
fd
09
f9
fd
52
7f
16
e0
15
21
f0
ec
01
08
0f
ea
f3
e1
ec
0c
e3
e9
eb
08
07
0c
06
04
e3
d6
fc
df
f1
e1
e6
fb
f1
14
0d
e3
05
05
10
f3
02
f8
f9
e9
ff
ed
11
f6
d4
e7
f1
e8
ef
02
03
fa
17
17
08
0a
13
19
22
0f
f8
e0
30
ef
06
ea
d2
f0
13
f4
fb
0c
40
40
37
16
2e
2d
07
20
16
0d
0a
0c
d8
f0
ef
0a
d6
df
f2
f4
dc
de
f4
0c
04
0c
fc
17
01
e9
e3
03
ff
24
15
ef
0e
2a
16
e7
0e
56
22
f6
e7
ee
f0
d7
cd
d3
d3
2d
3d
2f
1d
19
21
0e
1b
15
02
04
fe
15
fa
ee
e1
02
e6
15
2b
fe
1e
32
15
fa
07
07
e6
d0
f6
16
a1
f7
e5
c3
05
ed
bf
c2
fb
f3
ee
ff
f5
fc
f7
eb
f3
e6
d0
dd
e5
07
fe
f4
1d
02
ea
e6
09
d9
e6
01
dc
d5
ed
f9
07
ff
ff
09
09
e7
cf
01
db
ec
eb
06
ef
f1
d9
06
d8
e2
f6
0e
f6
f8
f9
ef
fb
ee
f2
d0
ed
ef
e8
ed
f5
f6
f6
08
f0
fc
0b
ff
11
f8
00
ff
0f
f8
fa
f0
01
02
f9
0e
16
e6
e9
19
0e
da
0e
0d
0d
23
27
03
f1
5a
2a
0c
06
f7
fd
f4
ec
e0
f4
fa
e7
eb
ea
d4
e3
02
ed
da
e2
0f
f6
f3
f9
ed
ee
ce
04
22
f1
ee
1a
1d
e9
de
11
fa
f6
fe
f3
e8
ef
e0
1f
f9
d5
d9
ed
f6
d8
f1
02
ee
e3
eb
f5
1d
eb
f5
04
11
e1
ed
f3
cd
f8
03
dc
1f
05
f9
09
37
3b
48
13
f6
09
13
fa
f0
d0
c4
d9
e8
ea
ff
ea
eb
08
13
f1
50
49
57
1d
63
7f
7e
30
de
e5
d5
f3
df
eb
d4
d2
f0
da
c8
e1
c7
cf
ba
eb
de
f3
e9
e0
dd
0d
1b
f9
f9
fd
17
fd
ee
d7
ee
04
0b
eb
e3
ec
d8
d2
e8
fd
b5
c0
d8
f9
0a
de
c8
cc
09
fb
05
1c
ea
f3
ff
0b
ed
e2
00
0c
ff
ed
f7
dd
e2
25
2b
0a
1f
1d
2b
11
5a
0a
29
12
4b
1f
24
0a
14
f4
18
2b
fd
d4
fe
1b
f7
e6
ec
e6
01
f1
e4
d3
f8
0b
2b
fa
f2
0a
11
22
26
2e
2b
11
3f
71
79
25
19
02
f7
f7
fe
01
e7
fd
f2
1c
27
12
0e
1f
24
34
e0
f5
f6
00
da
de
da
0e
e4
10
dd
f6
e2
f7
fd
f9
18
26
07
f8
1d
2d
05
fe
08
0a
f1
f5
05
48
62
33
f2
ff
fc
18
00
07
00
02
f8
f9
fa
c8
1e
f6
e2
f4
fe
c2
d7
f5
fb
d9
dc
e0
fa
e4
da
e6
c8
de
ed
e8
f6
eb
ef
f5
c8
cf
c9
fa
df
e1
c1
ee
d2
d1
d2
e8
d8
f2
17
d0
2b
36
48
30
20
3d
24
4e
fb
28
fe
43
da
04
1d
fd
ff
ff
06
20
2b
31
26
40
1a
32
30
26
ee
dc
d6
d6
f1
cc
ec
ed
f6
e7
e7
df
e8
fa
e1
e5
05
36
fc
e4
0a
10
f6
eb
f7
f1
1e
33
e7
0c
32
05
05
ee
f3
fc
e5
f3
e4
f8
17
41
18
10
12
2b
f6
11
1c
f4
de
ee
02
1e
e0
de
06
fc
fc
07
08
07
16
56
f8
05
00
ec
e3
04
19
02
cc
e0
05
da
ed
d2
c3
1c
f1
fe
35
0b
fc
f6
ed
e5
ec
d5
e5
df
ed
e3
db
e9
16
d1
e6
03
10
d6
e1
fb
c8
e2
e6
d2
ed
f3
f2
e8
fa
00
f9
ff
f9
08
2d
01
ed
ec
06
d6
db
ce
ed
c7
fd
f7
ea
eb
dc
cd
c2
e1
ec
e4
f4
e0
04
e8
d3
e0
13
16
fa
f3
10
e7
d4
f7
10
d8
9a
b6
0a
f6
da
23
e0
e7
14
10
e1
ff
29
1a
ff
00
fb
00
0f
07
f7
e9
0d
03
d8
e6
dc
14
fc
fc
d6
d4
f7
e3
f1
cc
ba
d2
ef
f3
dd
1a
e0
b5
cd
03
f6
e5
e1
0f
21
f0
db
fa
ee
d4
ce
08
d3
b7
da
ec
e7
c2
c9
ec
ef
d8
e0
f0
f2
ee
e1
da
08
ce
dc
fa
0b
d4
e5
28
ee
f5
0e
03
17
ce
fb
f2
18
e4
0c
ec
d1
f4
e0
e4
13
3d
22
2d
fd
11
fb
21
2b
19
f6
f8
f6
ee
fa
d5
1a
0a
31
05
fc
f4
e8
ed
ec
18
07
f7
02
ee
08
f2
fa
e8
13
13
05
e8
f5
cf
fa
27
ff
e8
14
ef
f0
2e
03
15
1c
30
09
03
f8
f4
fe
da
d9
09
ec
cf
e9
f2
ff
fd
f4
0e
0a
c8
ec
f4
34
12
f2
59
17
11
d7
fd
e3
f3
f9
eb
ec
ea
ee
00
0f
e0
ed
fc
f7
f2
e4
e9
d5
07
e0
fc
24
ef
e7
df
0c
33
f3
fe
e9
f8
db
e5
e1
e6
c7
e8
d9
ea
e0
f7
18
02
16
0a
01
f5
3f
f9
f7
02
21
f9
0e
2a
07
22
fe
f2
fc
ed
f1
e2
e4
e8
d5
ed
e8
f2
07
f7
ef
00
fc
fd
ee
fc
e8
fa
cc
f4
e3
cd
ed
ed
26
e0
06
ff
18
19
35
08
10
34
02
09
ee
30
1a
12
dc
f4
fa
f6
bf
ef
cf
d5
e7
ed
ce
e3
19
ed
da
ed
cd
0f
27
f0
ec
2d
25
da
e5
19
ff
d4
e2
e0
db
eb
f9
fa
f3
f9
ea
f1
de
e7
e6
f9
ca
fb
22
1e
fb
07
fe
f2
ec
0b
1c
f0
d2
05
13
ee
13
0c
08
f9
05
09
3e
08
ef
1c
0d
fc
1d
1e
0f
e2
ff
fd
e9
e6
e9
0d
f8
ee
f9
fa
e2
01
e7
d4
d5
e7
e6
07
f4
ec
e3
1b
e4
ea
14
2c
06
f8
09
f9
0b
e5
f2
f9
20
0f
16
f8
0e
1b
f9
1c
fe
32
16
ff
0c
f4
e5
fb
fc
c6
d1
e5
03
ef
ec
07
01
e8
01
dd
f3
df
fb
c0
e4
d6
ef
b2
fc
f9
f0
ea
dc
ee
e7
ec
17
00
da
06
13
2a
7f
1b
0c
2a
07
09
f7
f9
06
0b
06
f4
f6
09
f2
db
db
e6
c7
f9
f0
f1
c4
dc
ef
e0
0f
e0
fa
e9
00
01
05
09
0d
02
01
16
f5
03
ee
01
f5
f4
f2
10
05
f9
e9
00
fb
fc
f3
fa
f4
0c
f0
eb
ea
ee
dc
f1
0b
f0
e0
fe
c3
e5
20
1b
12
05
41
02
0e
f4
01
fb
f4
f3
ed
eb
12
ef
e0
0d
e2
21
f5
f4
c5
dc
e7
ec
e4
d8
ed
fb
f2
fc
e3
f6
f1
ef
db
db
12
fa
f5
10
14
3d
20
18
e4
03
f3
f7
0e
3f
30
f5
2b
c9
f6
e5
e8
c5
b6
dc
f8
e9
e6
eb
e7
03
e6
22
ef
19
f7
ff
08
1f
43
2b
f0
f5
ee
07
ff
19
14
15
0d
3b
22
f2
d6
00
fd
f4
b8
e9
fb
0e
1c
f6
d5
e7
11
4f
48
06
fd
07
10
09
14
1f
1a
f7
03
f3
dc
ee
18
02
cc
d3
f1
f8
da
28
07
10
06
0f
17
ed
d7
eb
e2
e0
d5
0f
fb
08
0c
f3
16
e8
fd
1c
d7
b6
9f
a8
17
de
f0
08
0f
ee
e9
fc
fb
01
0c
01
fc
2a
4d
30
f0
cd
db
09
11
eb
d8
f2
f3
81
95
c7
bb
a3
cc
b2
f5
13
1d
f9
f7
dd
ed
fd
24
ce
f4
05
11
fe
f6
fa
ec
e3
fc
d1
57
f0
0e
01
1f
e1
22
04
15
f0
aa
ea
0c
f1
d8
ca
ef
19
05
3f
f4
dc
f7
fd
e0
ed
f9
02
fd
39
e4
08
fe
03
ca
e7
21
2e
1f
f3
f6
d2
20
fb
e4
d7
fb
21
4b
12
f5
fc
0b
ef
fb
10
ef
ec
df
b6
05
1d
07
02
f3
13
04
fb
9d
d9
c2
e2
df
ff
e0
df
e2
f5
22
f8
f5
b5
d7
01
28
f8
07
d6
f8
db
cb
b0
e6
e5
f7
eb
12
ec
20
ef
24
10
37
1f
ef
ea
e7
e4
e4
d3
bf
d9
10
fd
21
31
01
34
24
12
e2
dc
09
47
28
08
0a
3d
09
17
05
29
23
0c
f0
0b
cb
bd
9c
d2
f3
2e
17
4e
18
16
1b
48
d4
d7
f4
ff
32
7e
5f
1a
ff
05
fe
1a
00
01
1c
0e
2b
5a
2b
03
48
da
dc
e8
1e
ea
c1
05
4e
0d
1a
ea
ef
f8
3c
18
d7
cc
11
2c
ec
ea
db
d8
d0
f5
b4
0e
19
13
0d
02
f5
f8
f5
1c
ea
f2
d5
e3
d9
de
fb
eb
ec
01
ec
0c
dd
06
0e
4b
c5
d5
f8
dc
d9
e2
bd
c6
0e
03
05
0f
f4
eb
fb
bc
0b
34
46
d2
20
57
68
11
ec
f1
f7
02
0e
10
0e
10
1b
de
dc
0a
41
bf
e3
4d
c5
db
fd
f5
a0
c5
e6
19
da
ee
e2
13
d9
ea
f7
07
40
05
0f
e0
28
0d
1f
0b
22
3a
43
17
10
53
0b
f1
f7
01
38
2a
02
e4
05
35
09
dc
03
2a
f3
18
56
5b
aa
ba
dd
15
e7
3c
11
02
1d
1d
cc
10
fb
da
06
3f
19
14
23
ec
4b
28
41
fb
e0
20
e8
eb
9c
cb
d8
d6
f2
f6
00
14
e3
01
0a
0c
f6
03
1d
04
06
f3
37
35
0c
fb
f8
01
e4
9f
a2
dd
df
d8
a6
e6
dc
eb
e2
df
31
76
79
14
07
04
2e
02
fd
ea
07
07
da
e9
d5
dc
04
38
2f
0a
0a
4e
52
1e
1f
10
17
fd
4d
02
2b
35
02
19
18
10
ec
be
c6
ff
21
11
f5
ef
22
27
42
0a
ff
ed
00
14
11
3f
1b
08
14
ef
e8
e2
00
0f
02
02
fc
1d
e7
f2
0f
3c
0b
08
06
e8
e0
f3
ef
e8
ed
f9
4c
ee
f3
00
f4
c7
ba
a6
e2
d6
cf
c9
0d
e4
f3
f8
ed
f6
05
f6
e9
fc
35
1f
ef
fc
1c
d9
03
e6
e0
dd
07
b3
b4
cd
c1
9c
81
be
0f
fc
ef
eb
f8
05
10
24
1b
e3
e5
07
0e
b7
da
df
2d
e3
e6
dc
ef
2b
02
10
0c
e8
08
f8
0b
da
d0
ee
07
ec
b9
cb
d2
f9
02
f1
ef
07
0b
e3
e9
ec
ea
0f
10
45
47
2a
22
48
32
18
12
fa
ec
f1
09
f6
14
02
d5
b7
fc
12
f3
d8
ea
fa
0f
fd
ed
08
fc
f9
ce
f0
0a
eb
e2
de
23
18
22
07
11
d3
ed
ee
e4
e0
cb
e3
09
43
0d
0f
10
31
2d
13
1b
f0
f7
e7
08
c7
cc
bd
ec
d8
cf
e9
0e
f1
f8
21
19
15
05
f5
03
2d
13
fb
df
23
26
cf
fd
f7
00
fd
ec
22
12
02
13
2e
26
0f
dc
eb
0e
13
0b
eb
fd
1b
32
20
12
3f
f8
cd
8a
0a
e3
cb
b3
0b
fd
1d
10
f2
23
ec
ea
07
0a
2a
43
28
32
2c
3c
43
28
15
22
14
1d
fe
18
ef
38
2e
0d
0c
fc
c5
dc
01
26
f5
e2
ef
e7
da
11
f9
07
06
32
27
dd
cc
eb
fe
f5
dd
f7
d2
0a
f7
f1
07
03
1e
13
15
e8
df
d7
f2
fe
eb
de
db
fc
da
ef
dd
f4
27
22
1b
d1
e8
27
26
be
e0
f8
cb
fe
03
02
27
f1
06
04
fb
0f
fc
f9
ea
34
4c
39
1b
2d
df
db
0d
0c
03
f2
ff
06
fc
d9
fa
1e
af
ce
fe
e7
f6
f2
0a
be
9a
df
1c
c9
b5
f6
fa
ef
f1
00
fa
0f
f5
05
f9
04
0b
13
e3
01
0b
28
32
3c
1f
11
31
f1
fb
06
03
1c
1e
33
13
f5
c6
e5
19
ff
03
1b
24
c8
ce
a6
f5
dd
fd
ee
ea
06
1e
01
e8
0a
e7
f4
fb
f0
05
ef
f2
3b
49
1f
ef
0c
11
f4
ed
c5
f0
cc
e1
db
e3
e5
0f
dd
f0
fd
f9
f3
f9
14
03
f2
f1
0f
20
ee
ee
f6
fc
13
d0
d0
05
2a
b8
d8
fb
0a
11
18
19
f5
31
12
0e
15
5c
63
fc
d8
02
13
fe
e1
eb
f5
eb
0c
24
15
ef
30
18
1a
fd
31
57
53
fb
0a
01
fe
e8
d5
fd
f5
f6
c5
e3
dd
dc
d7
db
c1
d4
ac
de
b5
d6
ed
df
e4
e2
db
f7
04
e4
cf
cf
da
da
c9
ab
b1
bd
f0
f3
fe
f8
e0
e1
e2
e7
eb
d4
dc
e8
e9
e1
df
da
cf
d7
dc
db
e7
dc
e6
dc
eb
da
e5
dc
e1
cb
cf
e1
e7
d4
e9
d9
ed
e0
e0
db
f9
e8
e5
e6
ef
f8
e7
e2
da
e6
d7
d9
d7
d4
b2
a6
ca
a1
a7
95
d3
b8
c2
d9
91
fc
f5
fe
9d
a4
d3
e5
ad
a5
b4
de
bf
d4
cd
e6
f2
e8
e8
e9
ef
eb
ea
ea
f7
eb
e7
e7
f5
f5
f4
e2
c5
ca
dd
e2
c9
d9
e3
f0
cb
e6
eb
f2
e4
ee
ea
ec
e5
cd
d1
ec
df
de
e2
ed
ee
e9
fb
ff
d9
d6
d3
dc
f4
eb
f4
f5
b9
c4
e4
f1
bc
a8
ca
e1
d5
bb
e2
de
b4
c7
fa
f0
e1
df
fc
ee
d6
d3
d8
ce
81
ae
a8
ac
e2
e8
ef
f3
cb
cc
b9
b3
bb
ba
9c
a0
da
b6
bd
b8
eb
ce
d3
ef
e4
d9
dd
e0
e6
e1
de
dc
e1
f0
ee
e3
02
fb
fd
eb
e6
da
e3
f3
cf
cf
d5
ea
e0
e0
d9
f2
e6
d7
d0
a8
e0
bc
93
9b
cd
cf
ba
9d
e5
e2
e6
a9
ff
e0
e2
ef
ee
f7
f1
f8
f2
e6
eb
f4
ed
dd
e1
ee
f4
fd
f4
fc
e3
db
d1
c5
e9
cb
c8
ba
d0
ca
d2
ce
ea
e6
e6
e5
e6
e8
f3
f8
ea
e3
e8
f5
e3
cc
cf
e3
00
f2
ef
fc
f0
ec
ee
eb
fa
fb
f8
f8
fa
f2
f3
f3
dd
04
c5
d9
ec
e5
b8
b3
e0
d9
a8
95
e5
b5
a0
e5
f6
f1
fd
e2
e0
bf
d6
bb
bf
a6
d5
d0
bb
c1
c1
a3
e7
d5
d8
ef
f4
dd
e2
f8
ed
f8
fc
ef
ea
f1
e9
d1
ee
e6
ee
f1
d0
d8
e2
e6
dd
e7
e3
f2
f8
f7
fb
fb
e7
e5
ef
ee
eb
e2
ea
e9
f5
d6
f6
ed
e7
cb
e6
e7
fa
f8
f7
fe
e2
e5
e5
f9
ec
e6
e4
f9
f5
ef
f1
fc
ca
e4
e2
ed
e8
f1
ef
f6
e3
e6
f8
ef
d9
e8
e0
d9
e2
e8
e9
e9
d7
d2
e3
e9
dd
d4
ce
e0
d2
ca
d1
d4
ed
e6
e3
ec
dc
d5
dc
f2
e8
df
e1
f3
ec
de
e2
f2
ed
09
fd
f5
01
d5
d8
fa
fa
d1
c2
fd
ea
db
da
ee
f0
ff
fe
f4
d9
ca
e3
f1
d9
c8
d6
dc
d5
e5
d5
e3
e2
d9
d6
e4
de
ec
df
e7
e8
f2
fa
ed
e6
f7
f1
f0
da
f7
01
fe
df
e8
d7
e3
d8
e5
e8
d5
c3
e7
c8
e2
fb
d2
cc
d2
f0
df
d8
ea
df
d0
d0
e5
d1
98
81
99
0a
0e
fc
f4
f6
ef
d9
ea
cd
d6
d3
cf
ee
f7
08
d0
f7
fa
05
f1
f2
e9
e5
e9
f4
e6
eb
e8
ee
e5
f6
e7
e5
cf
f3
13
fb
e5
f4
e3
d2
e5
bb
f9
d4
ea
10
28
a8
18
00
cb
e7
bc
12
c1
1c
ca
d2
ae
d1
de
bd
e6
a8
e6
e6
f7
ad
a5
ae
c8
ce
cd
cc
c9
dd
e1
d5
e4
0d
10
0c
08
f0
eb
00
e9
e5
f3
d8
cc
22
e4
12
f8
cc
e2
f1
f5
e5
e5
e5
02
e8
fc
e1
f6
e0
fc
e9
ee
e0
e9
f8
f1
d3
f3
e7
fc
f3
e2
c7
d0
ec
ea
f3
d0
f8
ea
e8
ea
bd
cc
dd
ee
c5
cb
d8
e3
d8
e1
eb
dc
c6
b9
d6
d7
de
fd
cd
b4
e7
cd
b7
a3
8c
a7
a0
9c
a6
d3
00
d8
8d
c2
bb
a5
a7
b5
c9
b2
ac
d1
d2
e0
f3
00
fa
fb
e8
df
f2
d7
e3
dc
cd
d9
d1
e6
fe
ec
03
05
0f
dc
e9
cc
d8
e6
c0
c5
da
e8
eb
ea
e2
d9
c3
c9
c0
85
d3
b9
cd
90
d7
ca
e3
c1
e5
ef
d9
8a
f5
ed
00
f7
03
ec
f7
ef
f7
00
fc
fd
05
f2
f0
f9
d5
f3
1e
ee
d7
f5
05
e9
f6
df
d2
b7
c2
ce
e7
f5
e0
e0
ea
e9
05
f3
04
f3
02
fc
f1
f5
02
f9
ea
f4
f4
03
ec
00
f4
f8
fc
eb
0e
05
f1
fc
f6
f7
f2
ff
2a
ea
d8
c2
20
c8
e4
b4
1d
ac
c4
cc
d3
97
bd
aa
0c
f7
e9
e1
e0
e9
e3
e3
ca
fd
e4
ea
d2
bf
d5
c6
d2
e9
cd
df
fe
e7
ef
e6
f9
e4
e7
ee
00
f1
f9
bc
f7
f8
00
ec
e9
ef
eb
e6
f5
ed
e4
00
fa
f8
0f
11
f5
d4
01
f2
f9
c5
ec
f2
e5
0e
ed
d4
0e
dd
1e
ee
f5
f8
08
03
fa
01
ef
f4
fa
f5
04
03
f5
f4
ed
06
e1
fa
f8
fb
f8
e6
fb
ec
f6
f0
ff
e0
da
d9
c3
c3
ea
e6
f9
ed
ee
ec
e2
f0
fb
f9
e7
f2
e4
d5
e1
f6
e8
ce
de
fb
e3
cf
e9
fc
eb
e9
ff
f2
f6
f1
ed
ea
8e
e7
de
d5
91
da
d3
ac
a9
90
a9
b9
aa
cb
c3
bd
e3
fa
fd
fc
df
e0
c4
ee
c0
d7
d9
ef
c1
ef
d8
f1
fa
f6
ff
06
e9
f1
eb
fa
e2
f3
ce
e3
00
f9
07
ef
da
00
f0
03
ce
e9
de
e9
d5
d1
c2
d1
b1
d2
bb
d1
06
e8
f6
de
ea
f0
ed
f9
e1
ec
ec
fe
c2
b5
c6
b4
ed
ee
03
fd
e6
e7
e1
eb
e5
de
e8
f1
ea
f0
e3
ed
de
e7
e5
e4
f2
de
f1
d1
f3
e2
ec
d6
e6
d7
e4
dc
eb
d3
d2
db
ef
e5
f1
e2
ed
e7
e5
f1
ef
f8
e6
f5
b1
e3
d0
df
cb
c7
bc
d1
e5
ac
cd
c3
d5
cf
c9
e1
b4
e9
e7
ec
af
ca
c8
d1
be
cb
d1
d3
c2
eb
fc
f0
e2
e2
df
eb
f2
f3
ef
ef
e4
dc
eb
f1
e4
e4
dd
d6
ce
d3
de
db
d0
db
dc
ed
d9
ea
ed
f3
e7
f0
f1
ec
f6
d8
e1
e2
f0
ec
ee
f5
ec
e6
ee
f9
db
e5
db
de
f8
e4
eb
f7
c0
ad
c4
ec
c2
c2
b9
de
e5
d2
df
e8
d9
ea
f6
f4
e9
f5
f3
cf
d8
e4
e1
d9
ad
b2
cc
c5
f7
f5
f9
f5
e7
d3
ba
a6
be
a3
99
a3
cb
ba
cd
cd
e6
d5
c2
e6
e6
e2
e4
cd
ec
e1
e9
e7
e8
ee
ec
e1
01
ff
fe
ed
d8
e9
e2
ea
c7
e2
d3
e4
e4
f9
e4
f3
d0
d8
dc
81
e6
cc
ae
a7
d5
e1
da
ba
fb
e3
ec
aa
f6
e2
e6
eb
f1
f2
ef
f9
f3
f0
f1
f3
eb
d6
dd
f0
e5
f0
00
fd
d4
bc
d2
c1
c9
cc
cb
b8
cc
d2
ee
e0
fd
d9
d6
dc
ed
f0
ee
fd
ec
e8
ee
f9
e9
cc
cd
e3
f8
f2
e7
f9
f0
e9
ec
f1
f8
f7
f6
fc
f6
eb
eb
f8
d6
d8
d3
c7
da
c5
b9
bf
c4
a5
b2
b5
da
b4
c5
d6
06
fc
00
e0
f2
e9
e8
d3
ba
c0
e6
aa
ad
c1
ca
98
ef
dd
d7
cd
f9
e7
f7
f9
f8
f9
f0
ff
ea
e2
e2
dc
dd
e5
e8
eb
c4
e1
f1
e5
cd
e4
e6
e4
f0
f8
f8
f5
f0
f5
f5
e9
04
08
f0
f4
f4
f9
eb
f1
f7
dd
ed
f8
fb
00
00
02
e8
eb
eb
fe
eb
e9
e9
fc
f6
f7
f3
00
c8
e5
df
e6
de
f3
f9
f5
eb
f2
f6
fd
e0
e6
e5
e1
df
ea
e7
f0
dd
d5
da
e9
dc
dc
d7
e1
cb
d3
d4
dc
f4
ef
ed
ff
e1
ea
e2
fe
eb
f7
e3
fa
f1
ec
e8
fc
da
f6
fd
ea
ba
d6
cb
dd
be
c7
a4
cb
cd
c5
bc
d4
ea
fb
f5
02
bd
e7
e1
e8
c0
bf
d0
c5
d1
dc
ca
e2
df
d8
d4
e1
f0
e7
df
e8
ec
f1
f7
f6
ee
f4
f2
f4
f3
19
1b
0e
f7
2b
29
e4
ae
ba
13
13
c7
f4
bd
f3
cb
c8
fb
a1
2c
fa
19
fb
ef
ab
05
1e
d2
bb
81
9d
d5
25
c9
04
20
ea
c9
f1
cb
f8
f5
f4
d2
c0
1c
06
26
23
ce
fb
05
b5
c3
de
09
d8
1b
17
20
f8
b4
2f
af
b6
dd
9f
e1
0a
c4
0e
d0
cb
bf
2a
e3
f0
c8
e2
d8
1a
f8
00
0e
93
c3
bc
1b
c4
b6
a0
2d
83
17
20
ab
06
e2
ce
b0
9c
e2
b6
a1
b7
00
bd
d2
09
a9
a7
bc
1a
d7
c6
04
c3
f9
2f
f7
1b
ee
d3
08
db
c0
26
a7
ea
0d
05
cd
11
05
1f
15
fb
1b
24
c4
37
2a
f7
e3
ba
cf
ef
fe
cb
c9
24
ce
dc
eb
bd
f2
c4
db
f4
1d
a5
fb
f3
e1
b0
d8
f6
98
e7
ec
03
ec
cc
00
d9
f8
d5
ca
d3
e9
fa
b5
00
bb
dd
cc
e2
8a
8b
da
a8
f8
32
26
2b
f7
e1
1a
99
cd
17
b9
8b
e1
e0
c2
cf
2b
a0
d6
1d
ed
0d
ff
09
f3
e0
05
ac
d3
ba
18
b5
f8
32
c0
e1
0f
c6
e2
ff
00
da
c2
d0
0a
e7
d3
02
ce
bd
92
a2
eb
c3
f9
b7
04
ab
a6
ef
c8
ba
ea
b8
d1
f7
0c
10
fc
1c
c3
06
e0
10
fd
24
27
cb
aa
0a
0a
d2
1b
ce
11
00
10
c2
1a
b1
ed
b8
e4
b7
ab
f4
b9
f9
e4
fb
27
d0
15
e9
e6
ba
e9
ef
09
b0
eb
1d
d9
19
35
d3
15
d9
fa
f1
ca
da
d8
e2
c1
01
e5
23
ee
db
11
c1
cd
d4
95
e3
ed
a9
ec
e9
da
c0
85
af
c1
d4
d4
dd
af
c8
cf
a6
dd
d2
da
a3
08
e8
04
bf
cf
ce
8b
f9
e7
06
dc
9c
d7
c7
30
bc
ac
ac
f2
c3
f6
ed
ce
e6
cd
cc
f0
1e
d4
d1
1d
25
dc
07
d7
c8
0d
da
23
00
fd
f0
1e
f1
2c
c1
f6
e8
cb
e1
cb
f5
16
cc
db
bd
fa
07
c7
bb
ed
db
d1
c7
c8
fb
d7
cd
d8
a2
c5
dd
fc
d6
f5
e2
20
bb
b3
df
04
fd
cb
9e
f3
07
12
34
03
f8
17
ff
1f
32
3a
cd
1a
fe
b4
ee
e9
ae
cd
22
14
5b
00
e2
f9
bc
04
0e
b2
b6
f7
e6
21
e3
0b
fd
d4
d2
27
a4
02
12
02
cc
c2
ff
d7
b8
b3
ec
d2
bc
de
da
c4
eb
ce
a4
00
b7
bc
df
da
da
de
31
ec
e4
01
12
cc
ea
dc
05
17
fc
c2
d2
bf
c2
f6
fc
dc
c7
b7
0d
c7
df
c4
e2
c4
d2
f5
1f
ea
fb
e3
c6
dc
bb
d7
0d
ec
f7
c9
cd
c0
e7
ba
c8
e4
d7
1b
16
f3
09
fc
d6
cd
01
c2
cf
cd
db
c0
d0
d2
01
fa
01
dd
18
e8
03
dc
06
e9
f7
df
11
d7
fb
dc
e0
ee
cf
b1
e1
03
d1
c3
08
e9
da
ab
cd
d0
0a
ae
ed
c1
09
13
da
c2
be
cf
b3
9b
be
8e
cf
d9
f2
e0
f7
ac
d2
e1
f3
eb
f3
e5
e2
c2
bc
dc
c5
c2
e4
ce
da
ff
f6
d5
0a
c7
d0
9e
d4
f1
c7
e4
f9
fb
fe
e7
01
e6
de
e1
d8
d5
e0
bf
e8
e2
c4
e8
07
ef
bb
f1
10
b5
a7
8e
bf
f3
b9
d7
e1
bb
fb
e4
f0
ce
eb
0e
b9
d1
cc
f0
d7
b5
c9
b0
df
b3
81
a4
c1
c1
ac
d6
d8
e0
e2
c7
14
22
fe
d8
e6
0d
be
d1
e7
88
9e
c7
c6
c4
bf
e3
f1
aa
9f
c1
8c
d4
ff
aa
c8
c1
06
c9
f3
dd
e8
e8
1e
f8
ec
e1
e1
ff
ce
d4
1a
ea
fb
dc
eb
db
07
f3
c2
e2
03
d7
fe
07
f0
0b
f8
e5
e7
ef
d3
f0
d5
a8
a3
c5
da
df
d5
f5
d6
af
ea
10
b3
cc
b4
38
2f
10
07
22
dc
e9
28
e7
ee
d7
fe
ff
df
03
2e
bc
ef
21
da
e9
ae
b5
07
b5
a1
cd
da
e5
a7
ed
bb
ea
bd
c9
b7
0f
bc
00
0b
e3
ad
a2
04
e6
a7
c8
2c
e8
01
f9
d1
f7
1f
ea
14
f9
05
fc
f4
1b
0b
e9
21
bf
16
bd
da
c3
af
d4
c2
01
bb
b8
97
cb
b0
9f
9d
f9
be
cc
a8
d8
b4
c0
c4
d5
d5
e7
de
df
c2
17
d2
06
c0
c5
04
00
ee
c9
eb
e7
e6
eb
18
dc
ec
c5
ae
e4
cb
0c
c3
fa
de
c7
df
02
e1
ca
13
ce
ec
fc
cd
07
c4
ad
ef
02
cb
df
02
fc
e2
e1
14
ff
14
dd
e1
e7
0d
fe
f0
f8
c6
dd
da
ed
19
e8
cd
1e
d8
df
0a
ff
cd
e9
d8
15
f6
e6
cf
e1
fe
de
12
fe
ce
d9
f2
08
1d
17
cf
20
d8
e4
ec
e1
fa
c2
14
e3
ce
cc
02
f0
dc
d8
d4
f2
bf
d8
fc
f7
0a
d3
da
db
fe
ee
db
cb
ef
f2
cb
0c
bc
bc
ec
db
a6
e9
c3
b1
be
d5
ef
13
f9
f2
cf
d0
ba
bf
ea
dc
07
cf
fb
e0
01
de
c5
dc
c2
e0
c9
d5
df
0d
14
12
0e
01
f8
d5
19
de
e9
24
e8
ff
18
06
d8
04
12
dd
cf
2c
e7
fe
ea
27
06
f8
08
fb
e9
f3
f2
ec
21
de
09
07
0a
06
f0
e9
e0
19
f2
0f
fe
39
2f
19
2d
22
28
14
f6
21
02
29
01
ad
fb
ee
dc
f8
21
f1
cf
fa
fd
16
ce
e0
03
1f
06
21
22
2f
1d
08
e7
0d
1e
10
1d
22
21
14
0c
f5
0c
05
d4
d4
1c
e2
d7
f7
18
04
1d
27
0c
f8
f4
1a
fe
f6
fd
f5
ef
01
01
11
dc
ee
e3
1b
e7
f0
e4
27
f9
36
1e
20
19
18
0d
0a
13
fe
fb
16
09
21
0d
d9
ce
c4
fa
f8
e3
e8
22
0e
07
f6
06
eb
f7
fe
ec
ef
dc
f7
05
03
03
11
f3
fe
11
03
e9
f0
1e
f5
fc
f9
24
f0
f6
f3
f6
fa
f0
1f
0d
20
2c
fe
ed
f4
17
22
f9
ee
ed
02
fd
03
fe
f5
04
0b
17
1d
ff
e5
f7
e5
e9
06
06
09
09
19
0e
f6
e4
e8
04
20
e7
fa
08
05
f4
fc
0d
33
f9
0b
21
12
0e
06
e8
ff
ed
f8
01
d6
fe
ec
06
1d
07
bb
ef
09
f0
f0
f1
02
fc
18
28
06
f3
f5
ea
de
c8
f3
dc
bd
c8
00
08
cc
d8
eb
f0
f9
22
db
05
e4
06
01
16
e5
0b
03
fa
ee
12
f5
fb
e9
e7
f5
12
11
02
e8
e6
00
da
ff
fe
0a
d3
02
05
f8
f8
f7
e9
0e
09
0f
da
0e
23
01
f6
2f
0e
01
1e
e7
f7
e1
f9
fd
e1
fa
04
fe
0f
13
19
07
0b
ff
0f
fc
01
04
f5
e3
06
f6
e6
28
1c
0d
07
29
14
02
0d
07
d5
f9
01
01
13
c9
ed
ea
e1
ec
ec
fb
e8
e6
12
f6
de
0e
05
f3
fe
fb
fc
03
03
06
f5
f8
05
06
ee
05
11
eb
01
20
0f
08
2b
18
16
01
26
05
04
05
0d
fd
f8
08
09
04
ee
18
fd
05
f6
fa
ff
23
1e
01
03
2e
03
f6
fb
f6
f8
f9
08
0a
fb
fa
16
fc
08
00
19
eb
ea
df
dc
22
00
e4
f8
f8
0c
e0
07
e8
03
06
1d
0c
25
12
25
19
0a
42
7f
19
16
0e
3c
16
eb
c6
0f
2a
ee
00
f9
06
f6
06
11
fb
ed
fc
1a
fc
f9
00
0f
db
ea
f0
07
1b
fc
f7
d4
db
ff
f6
e8
d4
0b
fe
fb
c8
f2
df
0b
1f
f0
da
3d
1a
0f
05
31
22
c7
02
24
fa
eb
e7
f7
ec
ff
04
f7
db
d4
ec
e3
f8
fb
eb
f6
ef
ed
00
16
09
1f
ff
da
da
20
d9
e2
db
fc
bf
b5
d8
de
f9
14
26
bf
e6
0f
43
08
d1
c9
ef
f2
fc
58
2c
be
fb
cf
fe
00
d8
3c
fc
0d
e5
49
2e
f4
cf
e7
f1
df
c5
05
f8
cb
27
71
18
e5
fb
fb
d2
ed
fd
11
f1
11
ff
f0
e0
e3
1b
fa
ca
1f
3b
1f
36
46
0e
1e
27
f2
f5
b1
b6
09
06
04
e9
16
1f
d3
27
32
01
07
09
17
f9
07
ee
d0
ee
25
f2
f5
2d
cf
b9
e6
62
f3
fd
d7
11
f2
e3
13
e9
20
3c
1a
0d
2e
39
11
f2
c3
1e
e4
93
e1
f4
dc
d5
d2
f8
ea
19
e2
40
f9
ff
7f
7c
4b
fb
1c
07
05
18
0a
e4
00
0b
1c
d4
ed
cf
37
ed
00
01
1f
f5
ea
f2
a4
e5
ff
bd
ea
c5
e4
eb
e8
fe
f2
4a
f2
05
e8
fc
4a
d4
e3
ff
d9
b3
00
30
61
6b
0e
f6
07
0a
f4
f3
fb
e8
d9
e0
a5
c5
e4
f4
e2
e4
f0
fe
df
12
27
5e
ea
27
2f
f7
25
f0
19
a9
f4
06
a8
cc
e9
fe
06
fb
19
0e
1c
de
03
1c
ea
e1
c2
d2
de
ad
c6
e7
1e
ee
10
0a
e0
0f
05
30
c2
d0
09
d5
22
27
e0
0b
06
eb
0a
e8
fd
f9
29
43
17
29
10
01
fb
ea
e0
e4
e7
f9
cd
01
fc
06
2f
0a
1e
d3
f4
f4
cf
ff
0e
44
e3
fb
1c
fd
02
ec
55
09
fa
db
24
47
26
01
ee
f4
c9
da
e6
02
e8
d4
f5
1d
fc
fe
fd
f6
ed
d7
08
10
db
fe
fd
f6
cc
20
e1
f8
be
de
26
34
61
fd
04
07
8a
00
fd
19
01
d0
0e
0e
dd
ce
b4
c4
c7
c9
fc
1e
d6
08
32
0e
f2
fa
1e
0b
f1
f3
f9
da
e7
1e
df
f3
05
23
02
2e
16
fe
e4
fc
0c
d3
fa
0c
09
01
cd
0c
09
0d
ef
06
e0
02
f5
04
b3
c0
d4
0c
f9
f7
fb
dd
fe
e9
05
db
ee
f5
23
14
da
ef
fa
0b
c7
09
ec
f2
2d
0b
e5
0d
f6
0d
33
1d
00
0d
3a
5c
f8
e8
12
f7
f6
ec
d2
19
13
f3
14
0f
13
61
1d
14
e9
fe
1f
fb
ef
f3
0e
1e
f6
cb
d8
d2
e0
b7
e5
e5
d5
f2
e9
e7
fb
e0
be
ea
03
03
f8
e4
e1
01
23
1c
f5
f6
f4
eb
e2
bc
ed
24
25
f4
38
01
33
d1
c2
d5
eb
ec
e3
d1
0e
04
fa
db
09
d6
c3
f0
f8
01
19
0f
11
fa
c8
bd
e3
0d
b0
87
d0
fd
f5
10
07
04
c0
c5
d1
f3
0d
1e
09
f5
d7
fc
f8
04
31
eb
e6
09
0d
06
f1
05
08
37
43
34
11
31
51
10
5c
66
3a
09
3b
2c
1c
e8
ff
02
c6
e4
00
08
af
fa
e3
f7
de
e8
d6
d3
bf
5d
7f
1f
ff
35
7b
26
1f
fd
ef
0e
0e
fc
15
f3
fb
0d
bb
d4
f5
d8
f9
0a
11
ee
e1
cd
f3
e2
e9
01
eb
1e
d5
dd
d8
50
07
07
ec
26
17
11
1a
07
11
e4
e3
e4
fa
24
4d
f1
fa
0a
e8
fd
e7
ee
c9
dd
e2
d8
fa
f5
c8
ce
e6
fc
21
37
fd
17
30
2a
0f
01
a9
d1
fb
02
15
02
f8
f9
e7
02
03
e6
0c
ed
f0
fa
28
0f
11
e2
da
fb
0a
fc
eb
32
23
04
e1
e6
ef
13
01
e9
02
c1
d2
e9
e1
e1
fe
f0
e6
0b
3a
5a
55
e5
a8
a8
f6
18
e4
ef
f6
fe
f0
c6
f1
e6
f9
bb
f5
fb
ed
d2
f5
d1
c2
c1
c5
c3
e4
d0
da
ee
09
ff
0b
24
14
ef
22
1e
14
0e
0c
03
f9
19
16
27
3e
3d
1c
07
2f
20
1e
06
e2
e4
e2
e7
fa
f7
f4
e4
fe
de
0e
fc
0c
03
05
f4
14
f1
e1
07
61
4b
0d
f4
e4
e1
dd
d2
08
e0
d7
1b
f6
e3
e4
23
28
c0
e7
2c
34
05
f4
1a
08
07
f4
f5
21
fa
f4
05
66
50
1e
0c
f5
02
0e
d3
04
fa
03
f2
ee
00
17
e1
d2
de
09
18
2d
18
fb
ee
0d
fd
ec
f6
d5
be
ce
e9
f3
d6
14
f1
0e
22
2f
de
d7
05
06
f4
fe
09
01
c0
e9
f1
eb
e9
05
e7
fe
02
f6
10
01
e5
07
45
10
de
fe
ed
dc
ee
d8
cd
ee
1f
e1
dc
23
e1
c0
c5
24
fc
e7
ea
f1
c4
e1
f8
24
fc
fc
00
1d
0c
06
07
e8
e9
db
f3
dd
f7
de
01
d8
01
04
eb
cd
ef
f8
24
15
0e
33
63
2f
19
25
54
1d
01
0a
12
0f
0e
22
39
f4
0b
38
32
23
c7
d7
cf
eb
09
09
d4
13
db
02
06
00
3e
39
52
16
4d
04
10
fa
10
0f
ea
f4
e2
fa
dc
1c
f0
e1
a5
e0
ea
f7
de
e6
d9
ff
d7
f1
06
f6
fb
04
c1
db
f6
fa
eb
bf
b7
f3
1c
f2
18
1b
e0
c9
eb
00
f1
c6
f4
0a
fd
fe
f0
07
04
f4
e1
e5
0b
fa
f3
e2
e3
e0
0b
dd
12
fd
f4
fa
f7
ea
fc
e8
1e
3d
2d
1e
08
fa
f4
f9
f3
d1
0d
f6
ec
ee
ee
06
09
0c
13
fb
c5
ca
e7
f8
0a
e2
01
00
f5
09
18
e9
34
12
ff
f7
02
16
e4
12
fa
f8
0e
1a
e5
e1
04
0d
2f
4c
08
f8
fb
07
02
d4
0c
e9
d4
05
fd
fe
f6
07
f4
cb
12
26
00
e3
d9
0b
09
0c
1a
14
f5
02
04
f0
dc
95
81
de
df
c8
b5
e3
e0
e7
f3
02
e7
04
f8
f3
1b
fd
13
08
22
f6
ea
f4
15
e0
f5
ee
f9
db
d2
10
ff
f1
fc
f5
2c
21
e0
10
fa
ff
f3
fa
4c
f8
0f
11
fe
22
18
23
ea
f6
ee
32
f8
28
e1
1b
05
08
01
24
e5
e9
db
e1
fe
f6
1c
f7
11
26
27
f6
f3
f4
0c
fc
1c
06
fd
de
29
24
06
09
fd
fa
2f
19
e6
fe
18
eb
0d
3e
27
14
17
f3
00
e8
17
f7
fa
e8
19
2b
dd
e9
23
4d
37
fe
2e
13
1f
03
06
f4
c8
fd
14
1c
f6
f1
2a
58
31
11
f6
0b
30
05
f9
f2
0b
24
e7
1b
f9
d0
e3
ec
17
01
dc
f9
29
28
fc
f0
f4
ec
fc
09
f9
08
13
04
2f
08
fe
3a
5c
18
10
10
14
2b
f2
e8
cf
cc
08
18
08
ee
13
10
d5
d2
01
d2
d6
f7
ff
0d
0c
e6
fe
06
08
fe
f2
21
f4
d7
21
2e
34
ed
fe
1c
02
ef
fc
e5
36
1b
19
d2
de
f5
f8
d7
f8
f3
03
e2
24
00
e4
0c
f0
ef
e6
f1
d7
f7
09
06
fa
0f
0d
24
1d
19
d8
01
58
49
15
36
1e
31
02
0f
05
1d
2f
29
26
23
0f
02
08
d1
12
09
f4
05
06
eb
e4
cc
c5
e2
c0
c8
21
e2
e1
f5
02
07
09
fe
03
21
05
ee
fa
38
31
01
01
e4
2a
10
e7
e9
1b
04
fb
fc
13
fa
12
f3
0b
19
eb
e0
00
19
f5
e6
12
f7
fe
ef
1a
e7
12
09
16
ea
fe
01
19
07
0a
18
2d
13
12
55
43
33
ec
2a
09
fa
df
e5
31
44
ee
ec
08
01
f2
ec
08
e3
ee
13
0b
03
62
49
d6
eb
2d
08
02
12
18
f6
ea
02
1e
19
10
20
fe
10
e9
05
d6
e2
e1
08
d9
e2
de
f0
02
f4
e7
07
03
0d
20
fd
10
fa
2c
13
03
21
12
ec
0f
2e
17
fd
fd
31
10
fb
f0
11
04
ed
10
27
27
13
eb
2a
ff
fb
fd
dd
ec
fb
c3
cc
e0
f3
f7
da
f6
fb
f5
f4
fd
0a
f0
05
fd
eb
ca
e6
f4
dd
ed
d4
d6
db
ca
e1
cd
dd
04
ee
e4
cf
e5
e3
09
f1
ea
d9
e2
f3
df
d0
bb
ca
f2
f4
fe
eb
ef
e3
df
e6
e7
e0
dc
d5
d9
e3
d6
de
cd
fb
0e
f4
cc
f4
e5
ea
e7
e4
e2
e2
e2
c2
bf
ec
e4
d9
d6
d9
e6
e9
d8
e2
f3
e2
e6
eb
ee
ed
ea
e9
cd
0e
f0
dd
dc
c5
9f
c8
ce
8a
9c
b2
df
e5
c1
dd
cb
ed
e1
c5
81
a6
ca
ca
8e
ad
c2
d5
ad
ca
d6
e6
fa
fb
f9
ee
f7
eb
ee
e2
eb
da
e3
e5
f3
f2
e9
f0
c6
d2
e9
f0
cd
e3
f6
fd
e3
e7
f4
f9
d7
e9
e9
ed
e1
bf
d6
f1
d7
d6
ea
dc
d8
e7
df
e2
b7
d5
e2
d3
e9
f5
fe
fe
cd
be
e9
fb
d3
bb
cb
df
c1
bd
d4
cc
bc
eb
fa
ec
d4
d9
dd
e4
e7
c0
c5
cc
a2
bf
b8
b3
de
f9
f8
e7
bd
e1
c6
de
d2
cf
b4
bd
d2
ca
cf
d4
dc
da
d0
d4
e3
ee
c5
d7
f1
f3
da
d9
e3
00
fa
ef
fa
f0
f8
e1
d1
f5
e8
d5
c8
cf
d5
d6
d3
e4
d5
e9
f6
f1
d4
f3
c7
bc
ab
9c
d8
e3
d6
ab
d2
d8
d4
94
f7
f7
ee
ec
f1
fc
fa
00
f1
f3
f9
f4
eb
e4
e5
eb
fe
f9
00
f1
cc
e6
e1
ce
dc
cd
c6
c1
cf
e1
c7
d2
f4
f7
ea
ed
ea
f7
f7
fa
f5
e4
e9
e8
e2
de
e0
e5
eb
ee
f9
f0
f7
f6
f1
f2
00
fe
f6
ff
f9
ee
f9
fa
bf
f2
d9
2a
9b
be
95
b1
d5
cd
ac
c3
b9
96
a0
82
01
02
f1
e4
dd
da
ef
ac
cc
b4
d9
ae
c5
bb
dc
ae
de
da
df
f2
df
cc
c2
ed
e6
04
f5
b4
f6
f6
f2
bb
f8
e7
f0
f2
dc
e5
ec
ea
de
ec
e8
ef
01
f8
f3
fc
fb
e8
ed
eb
e9
dc
ea
f6
ea
cc
e4
eb
e5
ce
df
ed
f2
01
02
f1
e9
fc
ed
fc
fb
f9
f5
f6
f6
f8
f1
00
cb
d5
d8
f4
e4
ea
e8
f3
ea
e8
f3
fc
e0
e1
e3
dd
e8
e5
f1
f9
ec
d5
d7
ef
e5
e8
d9
ec
e7
d2
e3
e8
e7
e9
09
f0
d0
dc
c8
d1
ff
d7
e2
e4
fe
d7
de
ea
d7
f2
ed
f3
ce
f9
cf
bf
dc
b9
d5
ea
dc
b3
e7
fd
fc
f7
0d
fc
eb
c3
e4
f6
07
cd
d9
e9
da
d0
d5
da
e4
f1
f2
ed
cd
de
e2
ee
d7
f1
ed
f7
eb
ef
ee
ff
12
e9
fd
fb
b5
c6
b9
cf
d7
d0
b2
d6
f9
d0
d8
e2
d4
e9
a5
bc
10
f0
e7
da
d1
b8
92
e3
ed
b7
a6
af
ed
f3
15
d1
e6
ef
04
e1
f7
1a
fb
d5
c8
0a
eb
e8
fd
d5
01
00
e7
11
e5
06
f2
e6
f6
f1
18
e8
fc
eb
c5
d6
e5
c5
04
e7
ed
d9
de
cc
d7
c5
e2
e4
e0
db
c7
25
e3
e9
b7
bd
ad
a8
e3
9e
96
cc
d8
ca
cb
10
8b
b1
c0
c2
81
b5
d0
cd
8a
bb
b7
d2
92
cd
d9
bc
09
1e
f6
14
10
e6
bc
fc
27
18
fd
01
cf
f1
f5
ed
d2
f3
d0
13
c4
dd
cf
de
03
f4
0d
fe
e8
e1
f9
f2
e4
d2
ab
c0
df
a7
b9
f4
af
a7
ae
e2
04
c1
e0
07
03
ff
00
fe
ce
d4
c7
e9
f0
fa
fc
e7
d9
f9
18
ca
bb
d9
c8
ea
fc
e0
f8
f2
f0
d3
cc
db
d5
df
b4
cf
e2
08
ec
10
dd
af
01
ca
c4
c1
e9
ba
c6
d8
d2
d4
0a
d8
fc
ed
fe
c6
f9
ed
db
da
c6
e8
ce
01
1a
dd
e7
fb
ff
b9
00
f1
0a
c6
d9
c9
c9
ff
d4
d1
ce
de
ed
c1
ea
af
cc
c4
e0
ec
cc
d2
c2
ce
f0
b5
bd
9d
e1
17
09
fb
f2
23
fa
fc
13
05
11
06
e0
11
f2
d4
e3
ee
f5
06
d1
ef
e9
c6
b6
cd
bd
f3
cf
dc
15
f1
fb
10
f4
fb
0d
ea
0b
14
24
06
f1
11
24
16
1f
fb
05
e8
f5
ca
14
d3
fa
e9
f5
03
da
f7
16
f1
e3
f1
d4
eb
0b
b5
d6
a7
bd
ba
e8
db
fa
f3
ea
a1
c2
82
26
0f
ee
cb
bb
b0
96
a2
d8
92
a9
c4
f5
bc
c8
e9
c9
da
dd
e1
e8
d3
b4
f8
e4
03
05
f5
ba
c5
bf
bd
fb
f9
d9
eb
05
e7
e5
dc
ee
0c
f8
ea
e1
e7
fb
08
d3
fa
d1
f2
ed
ef
f3
f9
e6
d3
d3
fa
04
d2
0a
e7
e1
0a
e9
0c
df
e8
04
04
0e
12
14
0b
e0
ed
f0
1a
e2
f1
d6
05
e7
d9
ed
0b
eb
e7
d6
d1
da
d2
d1
17
dd
e2
e6
ed
dd
f7
e5
09
00
e3
09
03
01
d1
c4
e1
ea
d1
df
0f
15
af
b4
ec
0c
da
f6
db
fe
ec
e3
06
d4
f5
e1
03
d7
c7
04
e2
cc
af
df
c4
de
c4
02
f2
e7
0a
dc
fc
f3
c4
e2
ea
e9
de
cf
c9
c8
ef
da
d9
f9
e6
de
0a
cb
c9
cb
f7
d9
ee
f9
ee
d7
d2
ff
05
e1
f4
e3
fe
c3
e6
d4
ec
c9
e0
db
d8
c5
e7
c8
da
e6
cb
b0
c6
eb
f4
f9
eb
d0
c9
c3
e3
e1
c6
bf
bd
f7
ee
01
f4
dd
f2
e6
fa
02
e8
f7
ed
da
f4
f7
e2
ee
0f
06
07
f0
da
e4
f3
e3
e0
f6
f5
f1
f3
e2
05
d6
ef
f7
ed
e2
e1
dc
eb
0f
09
18
f0
fd
ff
dc
d7
da
0d
f8
dd
d6
fa
a5
b1
dc
dd
c4
c2
e8
c8
e8
eb
81
d6
e3
d6
b1
cf
c1
de
a8
a4
ad
cc
b8
bf
b0
dd
03
fe
f9
f8
fa
f3
e0
f2
fd
09
07
eb
e8
e9
ff
e8
e7
e4
f3
f1
e0
ee
e8
06
ea
e4
fd
04
eb
e5
fd
ed
f5
dd
de
fe
da
e3
d4
e4
c9
de
fc
e0
d5
d5
f0
e2
ff
f8
fa
01
c0
c5
de
e5
c9
be
c9
dd
f1
f4
e5
e6
d5
e3
dd
ec
fe
f1
fe
03
e0
e5
d6
bb
b5
d1
cb
99
e6
ee
ef
f8
bc
e7
c4
cc
b5
de
d0
b1
e2
dc
c5
ec
06
de
00
fd
ee
f1
da
ef
f6
e9
dc
d7
da
fe
05
e0
ec
f0
02
d3
dc
d3
e4
d3
ea
de
ef
cb
d9
e3
e3
de
d5
e0
ed
9c
dc
a7
b1
ab
d7
c2
bc
b9
ec
d8
ec
bf
fe
f4
ec
fd
fc
e5
f5
f5
f6
fb
fe
eb
f4
f9
08
f1
f4
fa
06
11
dc
e6
d2
e7
de
fa
db
d5
f8
d5
e2
fb
f5
01
e4
ed
ec
ed
eb
03
07
fd
f2
f3
fa
f8
ea
ef
e7
f4
f6
fc
fa
f7
e6
e8
f3
f8
ea
06
ed
d9
d5
03
c0
f5
e6
d9
f8
d5
a7
a4
de
e1
cc
af
b7
d2
a8
c2
06
e1
dd
e6
ef
b2
eb
b2
e0
cb
f3
c5
d7
97
e5
b5
e2
ba
dd
e4
ec
08
d6
fc
08
ec
e1
eb
03
d8
d0
ac
f0
f6
00
07
f5
e3
df
e1
e3
f1
fd
04
f4
f6
f8
00
fe
f0
ef
00
eb
ed
e6
e9
e9
fe
e4
fc
eb
d5
f1
f8
f0
fe
f1
f1
f8
e9
e9
e6
f8
fb
fa
f1
f3
fc
00
f4
d9
f0
d5
f3
fc
f1
e8
00
e5
e8
e5
f0
d7
d6
e5
d7
f5
ed
f5
fc
e3
da
f0
f1
eb
ef
f4
e9
f0
df
e3
f0
f1
df
ca
e3
e0
e7
dd
dc
e3
e4
d8
e3
dd
cb
e4
ea
e1
0e
f7
f8
08
c9
e0
d1
ca
af
cf
fd
f1
e4
dd
ef
12
0b
10
ee
e7
d8
db
ef
db
d3
e8
d2
07
f6
fe
d2
ec
f5
e6
ed
ea
ec
ee
e5
00
f9
f7
ef
f0
f2
00
fa
fd
fb
16
fd
ec
ff
09
e3
ef
12
fc
e9
d7
df
e1
e3
fc
14
dc
dd
03
1f
fb
ff
e1
1f
0f
fd
0f
f3
11
db
f5
f3
f9
f9
f5
fb
fe
fd
e8
ef
d3
f8
eb
f5
d8
f1
f8
06
07
fd
f4
f3
f5
e1
04
eb
f2
f1
f2
ef
05
f9
e6
c1
d1
c6
ea
f3
05
03
04
06
d1
e2
04
c8
ee
c2
0d
e4
fc
f2
b7
8d
af
ee
04
0d
b8
da
d8
d4
e6
ff
d4
1c
0e
2f
ea
f6
fb
c6
d3
df
d7
eb
fe
f8
df
fd
02
ff
00
ff
fa
f2
ff
06
0c
02
fa
f2
ff
fa
ea
ef
a0
e9
f2
d7
d0
c5
f4
f9
f6
e7
f3
fc
f4
fd
e5
fe
dc
d3
e1
f6
e5
12
eb
07
f6
f4
d8
f6
ff
de
c7
e5
f2
0f
2f
fd
dc
d2
01
dd
f0
eb
da
de
d3
2c
ed
1b
f3
19
fd
f5
fd
07
df
d2
fa
18
14
f0
c3
f9
d6
e8
0b
ff
05
00
02
f5
da
d2
f4
ee
ce
d1
0e
f2
03
ef
e7
e8
f1
df
fb
ed
ff
07
12
10
e3
d6
02
f2
f2
08
27
12
f6
33
ed
0a
d3
e2
e3
f0
cc
e3
f9
fa
ed
f2
09
ee
e8
08
f1
fe
ff
d0
17
f1
eb
f7
fe
f9
f0
d1
fc
fa
f3
f8
00
02
fc
ff
01
00
ff
01
fc
01
00
0b
06
00
08
fb
ea
06
08
02
1b
b4
fa
e7
15
0f
de
f9
12
0b
d3
06
f1
07
3a
0b
02
e3
eb
ff
fb
0f
00
0b
fa
ee
f6
fe
fe
f8
da
da
05
08
fa
fc
fb
f6
f0
f6
0b
d7
12
ff
e5
01
ce
07
d7
04
eb
0a
cc
bf
b1
f8
06
0b
01
0a
04
13
d3
e9
23
e1
be
81
25
b9
b6
ea
06
e2
de
f9
fe
ef
0a
04
0f
e7
e6
0e
0c
d1
be
ab
ee
03
f9
00
e6
f1
e7
e6
08
0c
05
f9
fb
04
f5
03
fd
05
f8
06
fd
dd
08
fa
0d
fd
f7
fe
f3
e8
09
01
f9
f9
f3
07
fd
f8
fc
01
01
f5
fd
fb
fb
04
02
04
f4
ed
db
02
ef
f0
e0
0c
eb
f8
f5
03
f6
ff
f3
0d
f0
0d
cf
f3
f7
05
00
f2
01
09
fb
fb
dc
e2
ec
f4
ff
fd
e8
04
f6
f9
ef
0b
01
df
ef
f9
fa
f4
03
01
2b
fd
fc
15
d3
04
00
e3
b6
22
1b
ef
bb
e1
34
0a
17
14
ee
f8
06
d7
29
d2
f3
0e
d9
b9
de
e7
23
00
e6
e5
e2
fc
ef
f8
ec
f8
f6
fb
f2
03
fd
f2
f2
fa
e7
da
fc
b4
b5
fa
f8
c5
b3
f2
eb
e1
d4
e3
af
cc
be
93
bb
87
1c
2b
09
06
ff
f9
dd
f3
bd
a0
8a
d2
e8
dc
15
ea
f1
f3
d1
09
cb
f3
d2
f7
11
f7
e0
e1
d7
ec
0c
ed
d4
dd
f0
fe
f0
c5
05
e9
fe
01
fa
03
ef
c7
e2
df
dd
df
d5
d4
d1
e1
e1
c8
e4
03
cc
aa
a5
03
db
fe
df
09
c2
d8
d2
92
ac
a6
d5
b8
e8
e4
ac
e8
af
b1
9f
e0
ca
e1
95
b1
db
ed
b1
b8
99
fe
db
17
f1
e2
19
ed
17
f0
fb
fd
dd
c0
01
e8
18
df
c8
f3
ce
12
c2
ed
e9
13
05
d7
0a
ff
e7
ed
fc
e1
de
fa
e6
f2
0f
c9
04
fd
15
f5
1c
fc
03
0a
d0
c7
ef
f2
0a
e0
d9
9a
e4
e7
a4
a0
ac
d0
de
af
b8
e9
c5
c4
d8
e3
ca
d2
f4
ee
cf
d4
02
e0
81
a7
a5
a2
0b
0a
fd
fc
e3
af
c2
e2
de
ba
f0
bc
fc
c9
d3
dc
0b
c1
e9
e2
e2
d2
ba
df
22
ea
ca
f1
1a
27
e1
ca
18
11
11
c4
d3
dd
0b
f1
fc
f3
e5
00
19
eb
f5
c4
c1
b6
90
81
de
a5
c1
a0
b4
b0
a1
b2
d6
b4
ee
8e
ee
ec
e5
e7
01
fd
d4
d7
14
dd
06
0d
dc
0e
ed
0f
d7
06
e0
0d
c4
b4
e3
dd
bd
eb
e7
e2
e5
da
b6
fa
13
d4
cc
f0
d4
e0
ec
e8
0a
13
11
16
12
ea
e5
0b
06
c1
ec
f9
ed
e5
14
e1
e2
16
06
0a
ea
20
18
e6
ef
e1
be
8d
d2
b8
d8
de
cc
d0
ca
a0
a4
9e
9d
b8
df
00
f7
d1
9c
f5
e2
96
ab
d8
e0
de
a2
a6
f7
9f
cc
ab
d4
dc
ca
cd
c5
02
cf
bf
d3
cb
e0
e0
b9
cc
e3
ce
0b
d2
d9
d1
fb
0d
fb
f1
0e
e2
00
20
1a
ed
04
04
dc
cd
02
ea
ed
e3
0a
d3
e1
e0
fb
e5
14
06
fc
1e
10
e7
ee
fd
f1
02
20
07
dc
04
23
e7
f0
e5
e3
ee
ef
f8
e2
e0
dc
d6
06
f9
1d
e4
ee
cc
d7
da
e1
da
f8
00
04
06
f9
f2
e1
e8
d2
01
df
ea
de
da
de
04
c7
d5
05
ef
ea
c9
1b
db
e7
05
cb
fa
03
d5
bf
12
e8
e7
f7
bb
c2
c3
ca
bf
af
ba
fb
c9
04
cc
c8
d8
29
d2
ff
c4
00
cf
d4
ee
ed
bd
b4
f7
d1
03
cc
d7
0b
ec
12
df
ef
dc
fb
d4
ff
e3
06
fb
e2
d3
e5
f6
f8
ff
c0
b2
df
e5
d5
c1
b8
cc
bb
cd
cb
c6
df
ec
c5
b7
e8
e5
e2
e8
e8
1e
15
fc
cc
8a
9d
b2
fe
fb
00
ee
02
f8
fe
f2
05
eb
f3
e3
0c
e9
de
f3
d9
d8
d4
d3
f6
e4
f2
e6
f4
e6
ee
eb
e5
ed
fc
f1
d5
d1
12
ee
f7
e3
eb
d8
fb
e6
da
d9
05
11
f5
ee
e2
cc
ff
cf
9b
bd
ac
a0
d9
9e
8e
c5
e2
c4
00
e6
9f
ea
dc
f1
05
bf
d5
d0
c6
b8
c2
e4
ef
e6
e1
f1
f0
ed
df
0a
f8
f0
f2
e8
f5
ec
db
f7
e8
f4
e3
ed
0d
e1
d5
d9
eb
d7
0a
f4
cd
ed
f9
f5
f5
f7
f1
db
ef
bc
d4
ea
e3
fe
eb
ec
e4
f2
f1
dc
e4
f3
cf
e0
ed
f0
f8
ee
d5
ea
20
06
d4
c9
e0
e9
f9
e2
f4
f1
cb
e2
fb
ee
f0
ea
f2
ef
dc
0f
02
dc
d3
eb
d5
e4
fa
e5
08
0d
d0
05
e0
f2
c9
c6
c0
da
d2
f3
be
f7
d3
cd
be
ea
e2
c7
d0
d1
f3
df
d1
e4
f0
e7
e1
ee
11
fa
05
e5
12
f5
07
e5
e5
c1
e8
f2
0e
de
0a
01
bd
cd
bb
81
f9
a8
c0
ac
da
cb
c0
e0
e8
e6
f0
c7
f3
e4
e7
ec
f1
f4
f0
f7
f2
ed
e9
ee
ec
e0
eb
ef
ea
e9
f6
ff
c5
e6
fb
ce
db
01
fb
ad
df
e7
d6
dc
ea
f3
e6
e9
f5
09
f6
f8
e2
ea
ed
ed
e5
d6
f3
ef
fc
f1
de
f7
fb
e5
e0
e6
f9
fb
eb
f2
f8
f2
ed
f3
ee
b0
d3
d9
f7
cc
b2
b7
e5
d3
c7
c5
d6
aa
e8
4e
fa
ef
00
e4
db
bc
da
a9
a0
ef
ea
cb
b0
b8
df
c5
f2
0f
d4
e1
f9
ee
05
16
04
fc
ed
03
03
e9
d4
b9
df
e0
df
f3
de
dc
e9
e6
d8
ec
e0
f8
f8
fc
fb
f6
f3
da
fb
f9
f1
cb
fe
fc
e6
c6
db
e2
d9
b5
f5
01
f5
f8
fc
01
ed
f2
f7
fb
f4
ee
f9
f2
f8
f4
f8
fd
b9
f7
d7
fa
f1
f4
f5
f7
e7
13
fd
fe
d2
e4
e4
d9
e3
de
c5
c5
d9
e9
de
e3
db
ea
d6
cf
e3
e5
d6
d0
e1
f0
ed
ff
df
e8
f2
03
e8
f8
f0
f1
f9
fd
0f
01
f6
eb
f5
f2
d5
d4
f7
dc
e5
bf
e5
e2
c5
d1
0c
00
d5
ef
da
fc
ef
d7
cb
f9
d7
07
e0
b1
0e
e4
e5
0b
d8
d9
d8
db
e5
ed
ea
e4
de
fb
f7
f0
d1
fe
ed
f7
e8
f9
f2
f9
e0
f2
e9
ea
f2
de
ee
ea
e4
fd
da
e5
f8
d9
d0
c4
e0
d4
f1
f1
db
ce
f0
f5
25
df
c7
c4
f4
f4
f3
f3
e4
de
ec
e5
e9
e2
ef
eb
ee
f7
eb
eb
d8
df
dc
e2
f8
e3
f4
fa
e2
d7
ee
e7
f7
e9
1e
fe
e6
ca
f7
ed
ea
e3
eb
e0
dc
e3
e5
eb
0b
0e
12
22
d4
f4
e5
f0
de
c0
a1
d1
dd
c9
96
d6
da
dc
cb
df
81
d5
f3
ee
92
ac
b8
de
8e
da
d6
d2
ce
f8
d6
db
f9
e8
ee
f4
fd
fb
f5
f2
e8
d4
d0
dd
e8
ef
fa
fa
ca
dd
e6
f8
dc
d8
f3
f8
d7
e3
eb
f5
e1
f9
eb
ff
ea
ed
e4
fa
de
fb
10
f0
fc
0c
d9
e6
de
e8
ee
f1
01
e9
f7
f6
f1
da
e0
0b
de
e9
e4
03
f1
e0
e8
f2
df
da
f8
ec
ef
f1
f6
ec
e2
d7
d8
f2
b3
c1
a9
9e
fd
fd
f4
fb
0f
e0
f4
ef
ea
da
d9
d9
e5
d9
f1
ce
f7
e8
e7
e5
f4
ee
d5
de
ff
f1
ee
db
04
fe
02
f6
00
f7
f4
d8
e5
dc
dc
de
cb
d6
e7
e7
f1
e0
ef
ea
cd
da
c5
bc
de
c7
bd
b6
cb
d6
c5
c3
ec
c4
cc
99
fe
ee
f0
f4
f8
f2
f7
02
01
fe
fd
fd
ff
f4
f3
ef
06
e8
01
ed
d8
bd
ea
db
d1
c8
ec
d8
de
c7
f2
cb
f4
e2
f1
e9
f4
e9
f6
02
ff
f2
ee
09
f9
f3
eb
f4
05
fc
f3
f5
f2
fd
f7
ec
f6
fd
ff
0e
f5
02
01
03
f1
cc
ce
bb
ee
ed
c3
e4
fb
cd
c7
da
e3
c1
ac
d0
0a
f5
fb
e2
eb
e0
dd
bf
bc
b1
e7
d3
f4
dc
db
bf
eb
ed
c1
af
f0
db
fc
db
e0
d9
df
e0
db
ee
c5
b8
f0
ee
f8
fc
e9
f4
ef
f4
f2
e8
f8
f4
ff
00
f8
fe
f4
f0
fd
f7
fa
eb
fa
e7
e5
ee
07
f5
fc
f8
0d
09
00
00
f5
00
ee
f7
f1
fb
f9
f4
f6
fc
06
fe
f6
f5
db
e3
f4
f7
f9
ea
eb
ef
fe
0a
00
f7
ea
ed
f0
e9
f0
e9
fb
f0
e4
ea
f1
f9
e7
ec
ed
fb
e4
e1
e2
ef
02
ee
f2
ec
f1
e6
e8
f4
f3
f7
f8
f6
fc
0a
fc
fb
ea
06
04
09
d4
d6
de
cb
f1
e1
08
c2
f1
f1
ee
b4
e4
ea
f7
f6
f1
e5
e4
f4
dd
f0
df
f7
01
f5
e3
e8
e6
ec
ed
fc
f0
f2
fc
f6
f6
07
f9
f7
fc
ef
02
f6
09
fe
fb
fa
15
ff
e1
0f
eb
e6
e8
ec
e8
cc
06
fd
fb
10
0c
1c
1b
1f
2c
0f
12
17
ee
f3
fa
27
f3
db
00
05
e5
fd
16
f1
c6
e6
fb
e6
f2
e8
ef
fa
f3
f3
ef
12
15
04
d4
e8
ff
e2
e1
05
1e
fd
eb
df
19
06
f3
0a
f6
03
e8
eb
f1
01
f1
d8
e2
05
cd
db
fd
f0
0b
d6
d9
ee
00
c5
e5
e8
e5
f2
ed
fc
f0
f1
0b
03
d7
ff
0d
05
e2
de
c0
f0
ba
d3
ed
e4
df
d5
e5
e9
14
07
f8
12
57
46
f9
fc
04
20
f2
df
06
3f
13
16
e5
e7
e7
06
df
d2
fb
1c
e7
05
f1
f4
db
e7
f0
0c
04
f8
ff
0f
1b
27
49
3c
08
e9
39
2e
ea
f9
0c
f6
03
07
0c
11
15
c9
d2
e3
1b
22
fa
e9
0a
ff
e9
fa
06
f7
fc
ed
2f
e9
f4
fe
00
09
f4
fa
f9
cd
d6
e9
ff
0b
ff
f1
0c
e0
01
e4
03
e9
0c
d0
01
f3
0e
05
48
28
39
43
02
21
30
1b
e1
30
2d
0f
0a
dd
0d
23
e1
fd
01
05
d1
e2
f8
01
e0
c5
f7
07
cc
f9
f4
fc
e9
dd
dd
db
da
c5
b6
0b
f0
e7
d3
e7
f2
da
cf
d7
d5
df
ec
0a
09
10
1b
20
fd
05
f8
fa
11
0c
2b
12
18
28
13
fe
e8
e4
ef
e2
ee
07
fe
fc
02
0a
13
f5
fc
05
28
24
15
14
14
06
2a
14
ff
f2
12
19
f9
01
0f
16
02
fd
23
68
10
eb
25
7f
4c
28
2d
5e
20
04
f1
f4
28
02
f5
fe
1e
4f
e9
f3
10
2b
f2
10
23
f1
03
fd
04
fa
df
f1
02
f7
e9
10
08
17
00
e8
e5
f2
fb
05
1d
ff
0b
00
11
ea
03
00
ed
f5
0e
e8
f8
26
f5
15
25
1d
d6
ee
1b
09
e4
12
1f
0b
18
07
15
f7
0c
09
02
01
fe
ef
16
1f
fe
18
1c
34
15
2b
1e
17
f7
01
f6
04
f1
e2
c9
e0
07
dd
ea
ee
f4
ff
e2
e8
dc
1e
18
17
c6
f7
e0
f0
08
f7
e6
ea
02
03
f4
f8
0e
fe
0d
f5
3f
0f
fa
f2
05
fd
ef
fd
e6
f7
f8
fb
16
1f
17
1d
26
11
f7
f7
40
26
27
0f
27
0c
06
0f
00
f6
08
fb
ec
ca
e7
ed
e1
f4
f6
15
fe
1c
26
0c
00
19
fe
01
eb
d1
e9
ec
f3
00
17
eb
d8
18
01
dd
05
fb
f5
0a
f2
e4
05
d8
d8
d8
c6
f8
eb
16
16
14
08
02
f5
14
eb
fc
0f
22
29
ee
dd
f7
19
ee
ca
f7
ff
0d
2e
16
09
02
72
33
ca
cc
30
1d
b2
f3
14
14
fb
e3
d0
d4
0c
e7
b7
c5
e7
de
bd
d9
df
e9
df
ea
03
0b
06
f0
28
0c
e7
f3
43
7f
06
c4
2d
5f
0c
ca
1d
ea
f6
f7
2f
0d
f8
e4
15
f7
df
dd
08
0c
e4
06
1f
a5
ab
d0
fc
bc
b3
c8
19
f8
fb
ee
05
00
cb
ea
0c
f1
f8
f4
50
f4
e2
0a
20
2d
06
f9
f4
2b
01
ee
1c
1f
3e
1e
b4
11
2f
5c
ef
fb
37
59
fc
0f
e2
a3
fe
e9
e9
f2
0b
08
0d
df
fe
53
3b
41
ee
16
f8
30
1d
22
07
01
50
40
08
f3
18
17
f2
e5
b9
e0
fc
ee
e4
e2
eb
0a
f6
cd
b8
d5
e2
c9
d0
fe
06
e0
f0
0c
00
fd
e1
f4
ce
c7
d1
c7
05
20
4e
ff
06
3f
63
05
1b
15
0b
ec
e6
fa
ec
ba
ea
e4
f0
e2
14
ec
db
e5
f4
dc
e5
fa
f1
b5
9a
ee
f7
c9
e5
f6
fd
14
20
fe
03
f5
f4
fe
eb
09
06
10
bc
e9
0a
fc
d3
d3
e7
f8
ed
db
f4
12
0b
f8
08
0f
df
ad
e0
20
ee
b7
c5
47
0a
ff
f7
02
49
48
4d
29
20
4d
32
0d
d0
15
f2
e1
01
e7
f5
d1
05
dd
03
06
eb
ce
f7
db
06
f6
e9
cd
ef
f4
e4
02
0a
04
dd
fe
e4
f7
26
23
da
a2
29
3b
02
f4
00
29
16
f8
15
32
0c
fa
0d
1f
1c
1f
11
1c
30
f6
0b
03
cc
b0
c7
bf
06
da
cf
ed
1b
e3
b5
34
07
fe
09
18
0a
f3
15
fd
10
e0
0b
ea
fe
c7
b8
df
0d
ff
f4
ed
09
01
fc
22
07
48
48
31
f1
51
67
07
07
37
1e
ec
00
49
1a
fb
0f
0b
06
f1
c4
f5
f9
f5
4a
29
14
fb
36
3a
f0
00
0b
fc
f2
f2
dd
cf
fd
f8
f5
fb
03
08
f3
f1
ec
e1
12
05
fa
f3
f9
00
20
ef
de
d2
da
19
cd
f9
13
1a
c4
e5
48
4f
df
e9
56
0a
e5
d2
e5
07
0f
05
e7
01
18
40
e8
10
4e
6e
1d
e1
fe
fe
23
31
c4
d9
25
2c
d9
db
e8
1c
f0
ed
05
00
f9
00
f6
fd
f0
f1
e3
f6
ff
27
1c
02
08
fa
e3
09
ff
f4
00
03
f5
e8
d4
f8
ed
bd
b5
03
de
9a
a1
cf
16
f5
00
10
f2
02
fc
45
ee
36
f2
e6
2d
07
fc
d5
e0
08
0a
03
db
ff
ef
f6
ed
e4
ee
f9
c9
f2
df
e7
e3
c0
c0
e7
fa
09
f7
f9
e4
df
e5
e8
d3
c7
d8
c0
07
08
08
ff
0a
02
f1
f0
e6
e7
ee
f1
da
e7
e3
e4
f3
f5
fc
04
ef
ee
ed
f8
ff
f2
f6
f2
ea
f9
f4
f2
0f
0b
0d
2a
fd
f3
f1
fe
e8
dc
e6
04
f1
fa
12
09
fb
0b
ef
02
07
d3
b7
f4
fb
a6
be
df
a8
fd
b8
e9
c5
db
18
22
8d
dd
be
fb
a3
df
9a
dc
81
9f
d3
17
ff
03
f8
01
03
f9
fe
fa
ed
d7
d3
e5
fb
ea
ed
f5
da
e9
f1
f6
e1
fa
fa
f5
e5
ef
e8
00
e1
f0
fe
fd
d7
0c
0a
ff
eb
e4
f0
f5
ed
c9
dd
fc
fb
11
08
fc
1d
0d
18
f9
03
0a
f3
f4
e9
e4
d3
f6
f3
ff
df
f4
e9
e6
fd
d8
ea
ef
ef
dc
ed
07
0c
f0
9b
84
c9
d5
0e
07
01
f5
fe
fd
dc
da
17
e4
c9
94
f8
cf
da
97
fc
07
01
f0
0d
fa
f7
e6
f9
e5
ec
e7
0b
02
fe
f3
f1
fe
0a
e2
f6
ea
ed
d7
e7
f0
fd
c6
da
e1
02
d2
f6
e4
e3
a9
f8
b6
c4
bb
f1
d7
e5
bf
d9
c9
d2
b8
02
02
f8
00
fe
fd
ff
fa
fb
f1
f7
fc
f0
ee
ea
ef
f6
fe
01
ed
fd
d4
07
d5
d4
b3
ed
d3
c2
ee
da
cf
fc
03
e9
e1
f9
f7
f0
fa
f9
f6
ec
f4
ef
e6
e4
e8
ed
ed
f5
f9
08
01
fb
02
fd
f5
f3
f7
00
f3
fb
fc
be
ee
f1
d3
dc
a9
e0
bb
cc
ba
dc
c5
d3
b2
b7
b4
fe
0a
0a
ca
da
e5
ec
d3
9e
9f
b0
e1
e7
d0
d3
e5
c2
dc
de
ee
cf
98
c7
eb
db
c1
d8
e2
f9
c8
c6
af
f3
fd
07
f5
eb
f7
f9
fe
f0
ee
f4
fb
f6
fe
fb
f8
0e
06
14
fd
06
fe
fc
fc
ed
03
e6
f1
f7
fb
f3
f3
fb
04
04
fd
fe
00
fc
f3
ff
f2
f2
fb
01
ff
04
fa
e2
f2
06
09
f4
fe
f7
fd
ef
09
08
f1
ee
fd
ef
e7
f1
f3
f7
02
07
ef
f0
fb
fa
f9
ea
f4
f2
e7
f1
f3
08
f6
15
04
dd
b8
b7
e8
e4
d0
bc
e1
0e
fb
d5
ff
e1
0b
0d
df
d1
e1
f4
e0
c8
cd
e7
b4
be
05
e8
9d
e9
06
fa
f6
d2
ef
f6
f2
e4
dc
e9
f0
c6
ed
d5
12
f8
f3
fa
f9
0d
ef
ed
f1
12
ef
03
fe
1f
00
08
f9
e8
25
05
dd
c5
e9
f1
12
ce
d6
0d
ea
fb
d1
ec
11
fc
ac
ba
e3
f7
e8
e3
d8
e5
f6
d3
03
e2
a6
81
c9
05
13
05
de
02
cc
ca
c2
bb
c6
fd
f3
c6
e2
d6
fe
f6
d9
d5
f9
d5
12
fc
eb
10
d7
04
06
e2
e7
ca
e7
ee
0a
02
e5
e5
03
ea
cc
e1
bf
b1
fd
fe
ff
f3
0a
e4
dc
09
ee
d4
d9
bd
df
c7
b3
b0
ab
c9
f4
c7
e7
89
f1
c0
f6
e6
d5
a2
bf
c8
19
fa
ee
aa
b0
d6
f5
ff
e6
f9
11
f8
fc
ec
de
e6
e5
dd
dd
09
2c
fc
2a
cd
08
eb
0c
12
de
e2
0e
e3
07
0f
f2
c7
0b
f7
06
df
fa
d4
22
f8
db
0d
fb
f6
07
fb
e3
ef
ec
de
20
08
c3
f6
f0
e3
e0
f8
02
ef
b9
f1
e0
e1
ce
ca
d8
e1
e3
c2
e6
13
ff
ca
e5
03
10
03
d4
8b
b5
c6
c0
16
d8
e9
fa
c3
09
d2
fd
ca
d0
ef
b3
db
00
d7
00
fb
dc
f7
ce
de
f0
e3
bb
05
c0
f8
fc
e7
cc
c8
f6
ee
18
fc
e5
e8
f4
02
03
f0
c7
c4
e7
18
e5
07
e5
c5
ec
d3
e0
e8
fb
e3
b4
ec
ae
ba
c2
da
c7
c2
92
ec
cc
dd
e8
da
08
04
06
d3
f4
db
fb
f3
e8
11
07
10
e5
f7
e8
cb
b2
01
dd
ea
d9
d3
d6
b8
bc
df
e0
09
bf
e8
de
fb
f4
06
0b
12
d0
e5
09
d7
df
e7
f1
e4
f0
f2
1b
07
ec
19
dd
04
13
03
29
14
04
f3
11
cf
19
ea
cf
06
dd
de
b6
01
b8
ee
af
ea
a6
ca
af
da
1c
e4
b9
c3
f5
ca
ac
d2
c5
be
c5
c5
f0
f3
b2
b4
ea
a9
e2
dc
15
14
b8
05
ea
eb
ef
e1
00
ba
f7
1b
12
f5
f8
ec
e2
dd
f9
d3
e9
eb
18
f5
11
ee
f8
fa
ff
16
dc
1b
d1
db
f1
c9
b5
0e
d2
fb
0a
fc
f8
12
e1
dc
02
fb
d5
e9
1f
05
f4
0c
15
f8
df
16
1c
eb
d6
c9
d4
eb
e5
f5
dc
d7
f0
d8
01
d3
c1
e0
10
0e
da
f8
0c
21
f3
fd
f1
de
d2
fb
11
cf
e9
09
cf
dd
f3
e5
f0
ed
ed
c3
11
10
c6
f3
0e
f6
f4
ea
d0
ae
f7
fd
de
b3
d2
c0
03
dc
d9
c1
e2
d5
eb
be
b6
c8
17
ff
e7
c6
e2
d9
d6
e3
db
c6
01
cc
cc
cc
f2
d7
e3
ee
ff
1b
f7
01
d1
0b
ee
0b
dc
15
dd
fc
dc
13
fe
f7
00
ec
0a
f1
00
dc
e6
e8
f0
f6
f6
f7
ef
c6
ff
e8
1e
ff
13
17
02
df
0c
fb
04
c9
d0
05
1a
fc
e7
fc
ed
f9
f3
f9
f4
ee
11
01
f8
ed
f5
dd
00
02
03
ee
ed
eb
13
fb
03
ec
0c
00
fb
0b
0f
e7
f4
e0
da
d6
d5
06
01
fd
f2
f0
f9
f4
f8
e7
c1
d3
d2
fc
01
ed
d7
06
9c
dc
f4
ca
bc
c7
e3
19
d7
f9
d6
d1
db
da
0a
1c
c6
cf
fc
e9
f9
ca
fe
e2
f4
fd
ff
fa
fe
e8
f1
0a
f4
f4
03
eb
e1
dd
ff
fe
05
ef
fa
f9
e9
f3
e5
09
da
da
f9
fd
16
f3
f1
f0
0e
0f
04
a3
de
e5
ea
d0
17
f6
df
d9
f8
d2
0c
e2
eb
d9
02
fb
fa
ff
e4
df
dc
d7
08
f3
cc
e9
fc
03
26
f5
f4
cc
d7
c7
d0
e3
f3
ea
e9
f0
00
17
01
a1
d7
da
eb
0b
04
0e
f8
ff
ee
f7
d0
dc
ea
d3
dc
fc
d2
d7
d5
cf
08
df
fd
03
e5
12
f3
02
01
0a
e5
eb
01
ef
f3
0a
fb
0a
e8
fe
f7
f1
da
e6
c7
e9
c1
00
01
ee
da
e8
18
e8
11
e4
d4
bd
dc
ea
dc
eb
ef
dd
1d
3d
e8
f1
ff
ee
e8
0e
06
fe
04
f9
fa
0c
fa
ec
eb
09
f5
1b
06
f4
0b
26
ed
de
eb
e6
f0
d8
ec
ff
ed
ee
e0
0f
f8
dd
da
f6
fa
03
f8
ff
ed
e0
0c
f9
02
fe
04
ed
0f
f1
f1
00
00
04
03
00
f8
fc
05
fa
0b
f8
04
f9
01
b8
cf
ef
a2
fe
08
f6
ce
db
f0
81
0a
29
0a
01
e5
fd
f5
e8
f6
de
f1
be
e6
e9
a4
de
d6
a1
a5
f5
de
db
e9
f9
f3
e3
0a
f9
f1
ef
ff
0d
e7
ee
e4
f6
06
0a
01
dd
fc
fc
ef
ef
04
10
0e
ea
01
0d
fd
f8
e7
f1
05
05
40
f6
04
ed
d7
e0
09
e2
dc
00
fb
0f
ec
00
f0
fe
07
fa
fc
f1
ee
fd
fa
03
02
ed
ff
06
fa
f5
fa
ed
11
ee
14
fb
17
f5
0a
05
f7
eb
02
ff
e3
05
e7
fe
09
fe
01
fc
f6
ee
05
eb
ec
00
fe
f0
f4
f6
f7
f8
0f
f5
0c
fe
f7
ec
fb
0f
09
f6
f8
18
e1
ec
10
fc
9a
16
e8
34
a7
d2
b7
51
e6
d3
ce
f5
ff
19
06
dd
fc
11
e6
f2
02
f1
fb
dc
ee
11
ec
da
e4
f1
ef
ea
eb
e8
e5
f3
f1
06
f5
ec
f6
f0
03
ee
0d
12
02
10
3c
f0
1a
e9
c9
e8
dd
14
fa
dd
e2
06
10
fa
2e
08
1b
0c
14
15
2a
14
ee
27
2d
fe
f6
f6
f8
e9
ef
14
03
f1
dd
27
22
d7
d3
01
f8
0e
ee
24
29
0c
e5
dc
d6
f5
a5
c1
be
ed
cf
fd
ee
5f
37
fa
e7
e6
db
e1
eb
ce
19
2d
f2
46
23
0a
21
18
2b
e9
db
f2
e9
41
cb
cd
00
f2
e9
e7
0b
08
23
1d
05
bd
f2
de
f9
d3
c4
c4
0f
b3
bb
d1
e8
df
0f
01
08
05
ee
ec
e3
6c
52
f1
d7
30
2f
fc
de
fd
f1
fe
27
ed
fa
e9
13
d9
df
da
49
02
dc
ec
01
f0
e9
ce
ec
07
d8
e5
f1
fb
15
47
5a
03
23
6a
5e
e8
fb
2c
24
e1
f2
01
07
f9
ef
eb
0b
11
e2
c8
ed
19
03
e4
fe
fd
00
0a
f9
31
16
f9
dd
1c
fb
e5
dd
fd
df
c9
d8
15
12
07
eb
0b
f8
e5
ba
05
e6
c1
aa
13
f8
f3
ff
02
46
56
25
06
62
67
3d
d8
0b
33
d9
04
05
13
16
e5
f4
00
01
d4
e7
30
13
d0
b4
05
18
d6
e8
f4
e6
f1
d8
cb
df
f8
d7
bf
f5
ff
ef
8b
f8
0e
e5
bb
ee
1d
0c
f1
17
fb
f0
e7
fa
01
0a
3f
11
ea
3b
46
10
07
11
0e
ed
eb
f1
f4
03
ed
e9
b8
14
e1
e7
ef
03
f8
f4
0a
1e
f9
00
fb
da
28
15
e3
e5
4e
51
cf
db
38
03
f0
0d
1d
1c
f9
13
17
7f
3d
08
31
58
30
fd
f4
dc
08
fd
17
09
2f
41
fb
dd
ca
21
f8
07
e0
e6
04
01
03
fa
f6
07
f9
f6
04
e8
04
fa
fe
02
d6
2a
01
f6
fd
f1
11
17
1c
e5
0d
eb
e3
f2
fc
e4
ff
09
fd
25
59
3d
ee
0d
3b
70
cb
d2
f7
f4
18
ff
02
f8
0e
0f
f6
02
0b
ee
0a
f4
1e
f9
14
0a
3b
09
15
20
fa
fe
ef
06
fc
ec
f4
0e
f8
d5
d9
f2
ef
f0
df
eb
d9
01
fa
12
dd
b8
b9
f0
1a
19
c5
d4
17
2e
ce
e0
e7
e8
e0
ea
48
f2
f6
f2
03
c5
eb
fc
c2
c5
49
22
0a
17
eb
19
0a
fc
d1
df
09
f0
f5
06
20
e7
f6
16
f1
f4
f9
08
e0
ea
d1
d3
f4
e9
ea
dd
33
23
1b
1c
f4
07
fc
0e
e0
0b
f7
f8
f5
c7
bc
f9
0b
de
ee
ed
f8
fe
f3
f4
0d
f1
fc
18
d8
05
ee
07
e8
00
06
f1
c2
f6
d9
d9
ec
e7
fd
e1
bd
d2
ef
dc
fb
37
02
f8
c4
ea
e2
03
bb
d3
e7
f0
c4
0a
ea
ed
84
88
81
a2
f4
08
05
34
f4
fd
29
0c
f5
ee
d2
ea
f7
02
d9
11
f3
0c
f9
ed
e0
f4
03
0d
10
d7
10
d8
08
f7
c9
d7
0e
c8
e7
d4
22
25
19
ed
dc
d3
eb
ef
04
09
fa
dc
a8
00
0d
ea
b5
be
cd
bb
a4
c6
cf
83
be
c2
e2
eb
f9
dc
f7
20
bb
c3
db
02
93
10
e6
bc
eb
f6
b7
a8
f4
fc
09
10
ef
12
0c
e4
ff
b6
bb
bd
34
fd
fd
ed
e4
c9
d1
ee
eb
06
fe
e4
02
ed
13
e5
0f
0f
20
08
08
13
ed
da
fc
15
1b
07
30
1c
01
02
42
13
2a
1b
db
e0
bb
09
cf
f6
d5
db
c4
e7
d5
b1
e3
a4
be
f4
19
f3
d8
06
04
ff
f0
fd
da
0c
04
ed
a8
9f
ae
a9
e9
c9
fc
c2
1c
9e
ed
a2
2f
da
df
c0
fa
b7
0a
f4
ef
f7
09
ec
ee
f8
d8
eb
ec
dc
04
12
be
aa
c8
ed
e6
1a
12
ea
d8
f8
fb
f6
24
e8
16
f3
16
06
06
f5
f1
f8
fc
d2
05
e1
f2
f9
fd
fd
f8
e9
fd
06
d1
ca
22
00
04
0f
0d
09
02
15
13
ec
eb
e7
e6
f6
c5
00
d5
fe
f4
f2
c7
ef
d6
e5
e8
d6
d5
c4
b2
e2
c7
cb
0d
fc
f5
f6
f4
2a
2f
1d
eb
f1
c3
d8
0a
e1
dc
0c
fe
04
f6
f8
1a
0a
ed
d7
08
f9
0d
e6
d1
1e
1c
0a
df
18
f7
af
e7
cf
ec
df
f4
ea
dd
cf
f8
de
d4
bb
d1
ab
a6
c0
e3
ee
bc
d1
d5
c4
a2
d6
db
d9
0b
ee
ae
ba
c6
ef
be
b3
c5
dd
d8
be
b7
cc
f7
c6
d4
cd
01
f5
18
11
f0
fa
1a
ea
da
d7
ff
09
eb
08
19
f7
f1
0f
ea
e3
f9
0f
0f
f6
ed
ef
ff
06
03
df
f4
0c
f2
f5
1e
13
1e
05
09
10
04
11
06
0c
09
25
03
f5
e1
06
e0
f4
0b
03
16
f3
11
0f
01
08
1f
0d
f2
f0
14
de
e8
ec
e0
10
df
f0
0b
ef
de
01
12
ee
e8
09
d4
b2
b7
a1
de
d8
e8
e0
f8
b1
b0
e2
e9
be
c4
d6
da
1d
3c
02
02
eb
bc
f7
13
e9
d8
e0
19
c4
10
bb
e5
f5
02
02
da
e2
01
0f
f3
21
1d
27
c9
16
f9
de
e5
e7
16
f2
0f
f2
10
09
3d
15
04
19
3e
27
00
22
e3
fc
f6
00
d9
fc
ff
00
c8
e2
d9
ca
b0
d7
cb
d2
dd
c6
17
0e
f8
e4
e5
ee
f7
c1
ec
eb
cb
b1
a8
c3
f8
e0
eb
de
fc
05
f0
fd
f9
02
f5
f4
06
0e
1b
22
e2
e5
ee
e6
dc
d3
e3
e8
f3
e4
ec
de
ec
fb
f4
df
fe
ce
bb
e4
07
fa
03
eb
e7
e2
f9
e3
fe
e9
f3
f6
de
06
ef
e6
f9
cf
bd
fa
de
8f
c1
ba
9a
c1
ce
d4
ae
0c
ed
0e
c7
08
d2
c6
d3
d2
c5
da
dc
25
11
cf
fa
f9
f4
fb
0c
07
04
02
f2
f4
f0
ef
09
f4
eb
e3
df
e2
ec
f6
cf
e4
ec
f8
e0
f7
ed
01
fc
f1
f7
f6
df
f0
05
fa
f0
fc
fd
10
f4
be
fa
23
fc
f9
d9
e3
ed
e8
e0
08
e1
c9
dc
08
d7
e1
d6
02
e9
01
ed
ec
cd
d5
da
f9
11
ff
ce
d4
d4
e0
d4
db
c0
d1
ed
bc
0b
02
06
06
e6
7f
fe
b1
cd
ef
f4
db
c6
c5
eb
c5
ff
b3
b6
d5
fd
05
f9
d1
f7
d8
34
c4
fc
ed
ef
cb
f2
fd
04
f1
e4
00
e7
04
de
bf
d9
0c
e9
f5
d5
e7
bc
ab
b5
bc
df
c3
d1
99
cb
fc
e0
ce
ed
fb
e8
db
fd
ef
f3
f4
f3
f8
f1
fd
fc
fb
f9
fc
f5
ee
f3
fc
ff
01
ff
03
fa
03
20
e0
ee
bf
01
e2
dc
ff
05
fe
f4
dc
e1
df
ec
fb
df
ff
f1
f3
f0
ff
f7
dc
e5
f9
01
f0
e5
f0
f3
fd
fd
00
08
ff
04
0a
05
03
07
06
de
ac
cd
9b
bd
9a
12
01
ab
d2
b7
bf
d3
19
b3
1e
fb
00
fe
f0
1a
13
ee
e6
c3
b3
cc
cd
b8
f1
97
c0
cc
b5
ef
d0
08
fc
f5
df
f8
f3
10
fe
08
b9
cf
f2
ed
ea
ec
f3
db
e4
f8
08
ec
e5
00
f9
fa
fa
07
01
03
f3
11
0b
05
f4
0d
13
ee
cb
e3
e6
02
db
e4
f6
fc
fd
05
03
eb
ee
fe
ff
f4
f0
f8
fa
fb
fb
00
fb
da
ee
e8
f9
ee
fa
ee
02
ef
ff
04
0e
fd
fe
03
f8
e9
f2
ec
f6
e6
ed
e2
ef
f2
ed
e4
f4
f0
f0
e2
ed
e3
ef
21
07
df
cd
eb
01
ff
f7
01
07
fd
fa
f0
f3
fa
f4
f5
ec
b6
a1
f3
e4
87
c3
ed
ca
e1
cb
b3
e6
e4
ff
f6
04
c6
be
d3
d0
c8
0c
c4
c6
bf
dd
db
a1
ed
d1
d4
ed
06
e5
f4
fc
e3
c7
e7
ee
ed
f5
e4
f1
11
10
f7
f4
16
1c
fa
21
d9
5a
07
2a
e9
fa
fd
f6
11
fe
17
0e
16
ee
fe
f0
0d
e5
15
f0
23
05
2e
0e
1c
fc
fc
05
ef
ef
eb
ed
fe
e5
fd
fc
fc
f9
f5
f9
ca
00
0c
d8
19
2a
dd
46
18
0c
08
f0
02
04
f4
ec
0c
2d
f0
00
07
c1
c9
f4
f6
03
f9
ea
f3
05
04
fb
48
f1
ec
2f
fd
14
cf
dd
cb
c9
de
de
f7
ea
ff
f0
e6
f4
d8
11
d2
f5
dd
0c
ee
ed
e0
03
f3
ec
f6
fd
35
29
f7
f0
da
03
de
f5
f2
fe
f8
1a
f2
f4
e4
26
51
ee
f0
07
26
df
10
0f
ea
fc
2c
01
e2
fc
f1
dc
f3
0e
05
e2
fb
ec
f6
e5
00
ff
f4
ea
07
00
09
06
15
f4
fa
0a
f1
df
fe
1f
e1
ca
ce
fd
fb
f4
02
02
df
2e
05
08
e9
43
f6
14
e0
30
f6
13
e0
02
ec
ea
e6
00
fd
e9
f2
e9
d4
08
fb
e2
d3
01
04
fd
eb
ee
d9
11
43
fd
eb
ff
f8
f1
23
fc
05
f8
0b
fb
0e
17
fd
ff
f7
f6
10
ea
dc
f9
0e
05
e1
f9
fc
0d
02
03
20
0d
d8
cd
1a
f0
f9
fb
ef
f6
15
ff
02
f9
df
f9
16
ee
11
3e
f2
ee
0a
0b
06
e8
e6
ed
0d
fb
e9
f8
0c
06
fe
00
02
f1
c8
d2
0a
e7
e3
02
0a
f9
f8
f8
ea
f4
12
09
2d
e6
fd
f4
fe
19
f4
f2
fe
ff
05
15
f0
11
23
07
fa
e5
08
12
f8
d8
e5
f3
08
f4
fa
fb
e7
e6
12
03
03
f0
df
b8
fc
fd
ea
d8
09
e3
f7
de
fa
fa
f9
10
2b
00
ee
0c
36
21
7f
d8
13
f5
1c
c6
ea
17
05
00
f2
04
0e
15
06
f4
f2
fc
0b
f5
f7
d8
0d
fd
0a
1d
dd
fa
0a
ec
07
fb
fd
17
fd
fb
fd
fb
e8
19
01
f1
08
17
ea
fa
1e
fe
fc
13
09
ff
f8
f6
0f
fd
f3
ff
ff
ef
e7
07
00
e9
ee
fd
05
03
f6
0b
18
cf
05
1d
f1
f9
05
02
02
ed
f6
f4
ef
fa
08
13
08
01
05
f9
b7
09
01
f0
14
ed
f9
fe
03
f2
0b
fb
f1
e4
f4
ed
0f
fa
f9
f0
47
34
02
f8
1f
18
fd
0f
0b
12
09
f9
13
e2
ea
f9
e6
c7
cb
d7
f7
ff
f7
f8
03
ec
03
13
03
09
fc
27
f6
ef
29
24
05
04
03
0a
fb
fa
18
06
e8
1d
16
ff
10
f4
f7
f7
f3
fb
ea
f9
ea
ff
f6
ff
cd
fa
e4
e3
d8
d9
c9
e4
aa
d6
ba
ec
ef
d4
d7
cb
d7
f1
fa
ea
bf
e2
f1
e8
b1
b9
a6
bd
ec
e8
de
e8
ec
e8
e1
ec
e8
e7
f9
f3
c1
b9
bc
e7
e9
f8
ec
e4
f3
f0
f0
df
ed
de
ee
d7
e8
e2
e2
e2
ec
d8
d1
cf
f5
f0
de
e7
ee
ea
ea
d5
f9
09
ee
dc
e1
f2
d4
ea
e3
ba
d6
f2
01
dd
b5
a3
dc
d2
b3
0e
9d
c5
dc
c8
ce
9d
f4
e4
a9
9d
b6
ed
c6
e7
ce
f7
ef
f2
f3
e1
f6
f6
ed
ee
ec
cd
d6
d4
d1
c7
cb
ce
c1
cb
ed
e8
ce
e4
e8
ef
d2
ea
de
f2
d3
d0
e2
ec
e8
d2
eb
f4
01
e8
e1
fc
f9
c8
f4
f5
e2
f0
ed
ea
e8
db
d2
df
bc
aa
f4
f5
cb
ce
e0
f6
e8
d7
d6
e6
ba
e4
ee
e7
d9
db
f8
e5
d0
d6
de
d6
81
dc
a9
c2
fa
fb
ff
ea
d7
d6
b2
b1
f7
b4
a3
91
fc
b8
af
ba
ea
c9
dc
dc
e4
d8
f1
f4
f0
eb
e6
d7
e5
fb
e7
e0
f5
fa
ff
f2
05
d2
f0
f8
e9
cc
cf
ee
db
f4
f1
ee
f0
cf
ea
b7
ee
c5
bf
94
d6
d9
cb
a1
03
e5
f1
97
fa
e5
e7
ec
ef
f6
f2
f9
f4
ef
ed
f1
f0
e5
e8
ef
f6
f4
f7
f0
dd
c6
d4
c6
d5
cd
bf
b3
c5
e3
f6
e6
e7
de
d0
da
f2
f3
f3
00
ea
ed
ec
f5
ea
e1
e6
f2
07
f8
f2
f8
f3
ef
e8
ed
fd
01
ff
fb
fe
f5
f8
fe
dc
fd
e2
da
fb
cc
d7
e0
f1
be
b0
bd
df
da
ae
f3
03
fe
04
f4
e8
de
de
d3
b2
df
e3
d3
bc
af
e7
b8
e6
de
ca
d1
fc
e9
df
fc
f2
00
fe
ef
ee
ce
c1
b3
f1
e2
f6
f4
d1
e0
eb
f3
e0
dc
e9
fb
f5
f7
fe
fc
f3
fc
fb
f2
ef
f2
f3
f2
e5
f2
e3
e9
ef
e9
f4
ed
fb
fe
fb
03
e3
e9
e9
fb
ec
e9
e9
fd
f4
f3
f3
00
dd
da
e1
f6
ec
ef
f0
f9
e8
05
fe
fb
e9
d2
d6
d7
e4
ef
ea
f0
d7
e1
e5
e9
dc
d9
d5
df
d3
d0
c9
d6
f1
fb
f1
ff
de
e9
e4
fe
e6
ee
e1
f9
f4
ee
e8
f8
f1
00
f1
e2
ee
c9
de
d8
df
c4
ac
f1
d1
bc
ae
ec
f9
eb
f2
f3
ea
be
f2
e5
d3
d0
a7
f3
d5
d0
e3
f6
e1
d2
d8
e8
e7
ed
e4
f2
e7
f0
fc
ee
e9
fa
ef
f7
c3
d4
fb
16
d1
10
e5
e8
de
c0
c6
d8
e5
e4
c9
d5
f2
05
d1
d0
fc
0a
03
00
ff
c7
d9
ee
e6
ad
ca
cc
ef
f5
12
07
ea
17
2a
14
e6
cb
bf
c5
f5
de
b9
c5
de
e5
02
ed
0d
02
0d
f5
f2
fe
1b
ee
09
d4
09
d5
fa
e4
d8
b4
ff
c9
f1
f0
f3
f4
ba
e7
f0
ec
c4
e0
d3
0b
e4
2c
03
bd
df
ea
c4
d4
d1
c6
d6
e8
cf
f6
d7
cb
e8
cf
a5
bd
ed
cc
ee
ef
d2
e5
9c
d3
af
e2
0b
10
02
09
1c
0d
22
06
dd
da
e6
d8
e2
e5
c1
c7
e9
ed
08
0f
f0
fb
fa
12
e4
df
e3
12
de
f9
04
fa
d5
d1
fc
16
f5
f3
f7
26
cf
da
f9
05
0e
ce
c3
ea
0d
1f
19
f3
de
d0
02
c3
be
eb
ec
d2
ad
d4
bc
b0
e9
f0
fa
db
ed
03
cd
fd
e1
05
f0
c1
ad
f2
ad
a1
d0
0e
01
d5
c4
d7
d2
c1
bb
cb
c5
c0
dc
f2
e9
ef
da
f1
dd
fe
f7
df
d3
da
fa
1a
da
07
df
e9
e9
cd
e5
fe
0a
c2
ec
ce
f2
d2
f8
ce
d6
dc
f5
f8
c8
f7
e3
da
d7
af
d0
d4
e1
b3
df
e6
d3
bf
05
dc
e8
b5
e2
0e
13
eb
f5
0f
3a
f5
e8
f2
16
ef
ce
d3
d3
e2
fa
ec
13
10
f7
d2
f3
d6
f1
cf
c6
db
10
d2
f4
bf
14
11
e1
e5
fa
0e
43
2e
f7
eb
fa
f0
0e
df
f6
d2
f8
d3
d9
0e
02
ff
07
e3
d4
d7
dd
e3
0d
de
f4
e5
e4
1d
04
c1
df
ee
e7
d1
f2
dd
cd
e9
c6
b9
ba
c5
d5
d2
f4
d5
b9
e4
e8
bf
dd
c7
c8
b3
ef
c3
c3
db
af
ac
af
81
d3
95
d6
bc
c9
a5
cf
b5
b3
ab
c2
ab
ed
e7
ff
e7
e9
f7
ff
1c
f9
f1
09
e5
dc
f2
e2
db
ff
f5
fc
fb
fb
fc
ed
f9
f7
d5
e4
00
f4
e3
f8
dc
09
21
f7
11
0e
0a
0a
f0
1a
e5
fb
dc
09
fc
e4
f6
fc
db
db
e7
fe
e2
e5
09
ff
05
ed
ee
d5
d7
e7
ec
d7
f2
08
02
f4
02
f8
e3
f4
00
12
0e
dd
f5
f8
ef
03
c3
04
a3
c0
e8
c5
0d
c9
c5
e1
f7
e3
ee
ce
fe
f0
ea
e2
d9
ec
be
c6
db
d5
e4
db
f2
ca
ee
e3
c2
da
f1
13
ff
ce
dd
f7
e3
f7
e5
e3
d7
fd
f4
ed
e7
f8
ec
16
19
02
00
1f
02
ee
fa
f8
15
e7
0e
0f
f0
19
23
1b
f1
1d
14
0f
fb
18
3f
34
19
0f
4e
4f
35
1a
0c
fb
26
36
02
fa
19
28
26
21
0c
25
51
29
0e
09
0a
f0
cf
e6
22
eb
d6
d0
ce
e2
be
c9
db
f6
e5
e7
e0
f0
d2
f4
23
f6
03
02
09
0a
3e
1e
01
32
19
f4
f4
17
19
21
ef
e3
0a
e0
c0
eb
fa
fc
ee
f4
f6
1b
e8
df
25
43
04
f9
27
10
01
0d
1a
d2
e0
eb
e1
05
df
18
23
da
d2
0e
21
04
dd
d1
fd
fd
ef
eb
01
2c
2d
1c
01
2f
1f
fe
e1
e4
db
e6
0d
0e
0e
fa
da
e7
1f
fe
f4
02
3f
25
05
28
30
60
27
0a
44
46
01
1b
18
1f
27
00
d9
fd
0c
e4
c8
d1
d9
fd
0e
06
0b
05
04
ea
f1
fb
de
ee
1b
e9
b8
bb
ef
fd
d1
f5
09
0e
fe
18
13
13
37
56
1e
30
6a
53
40
f3
47
2d
23
e9
ec
05
e8
c0
ec
cd
c2
d5
8f
bd
d0
fc
e4
cd
f1
01
3f
26
ee
f3
3b
45
e5
d1
10
06
de
fa
05
f3
0c
c8
d9
e5
e0
c1
f4
fc
d8
dc
e0
d1
d5
07
11
01
d6
04
f9
dc
39
11
e4
c1
14
0c
03
d8
ed
e9
ed
c1
f4
1e
f4
07
22
44
48
27
32
3b
25
3b
39
24
24
3d
31
f3
f5
11
fd
ef
cb
e9
0e
de
ad
b3
ed
d9
ea
df
fd
f6
f0
29
08
06
3f
f7
c5
29
1d
e4
e9
09
21
0b
0a
01
f7
f4
fd
ec
03
f0
e9
ff
de
f8
f7
1f
ee
07
f0
3b
d3
2b
07
f3
02
19
d2
e0
ec
b9
b6
db
e1
e1
d1
e6
de
dc
15
e7
e4
c3
04
30
50
51
51
1d
5d
67
2a
39
fc
e0
08
19
ec
e3
f4
fa
c6
a1
e1
19
ca
d4
1e
ef
21
f0
20
ea
f0
0d
e9
f1
fd
fc
fa
04
00
11
18
e5
e6
d6
09
e8
e3
f4
ef
16
13
e5
0a
18
09
de
12
eb
f1
d9
e8
c8
ec
d5
d3
dc
ac
a9
d0
12
c4
ca
d0
22
12
2e
f1
06
ef
ff
e1
1a
e7
d0
e9
f8
df
e4
0c
1e
3a
eb
1a
ca
25
1e
fa
c8
f5
05
fc
f7
d6
f3
e0
fb
d3
da
d7
ee
c2
d4
b9
2f
25
32
20
27
3c
27
23
df
1e
2c
ed
fc
f0
f3
ff
0d
88
91
fc
02
ce
c7
f4
05
03
f8
10
01
0b
dc
11
eb
1f
1d
0f
24
45
4e
f5
30
25
21
65
11
7f
52
21
e4
53
2b
dd
e8
25
00
03
fe
ba
97
e8
e8
d4
be
fa
f8
d9
d1
e0
f3
f8
0f
d7
e7
dd
d3
1b
f2
09
04
49
f2
d1
bf
0a
be
ce
af
1e
e3
f2
df
e2
51
1c
f4
df
18
1e
21
e8
36
2c
2a
10
65
0c
03
ff
fc
df
09
ea
e6
eb
26
d3
03
07
3f
d9
0e
4e
3a
ea
14
68
3a
2a
2c
62
5a
63
24
2b
54
59
e1
0b
10
bf
d9
ee
da
d7
d4
ac
d1
e7
07
f3
17
59
b2
dd
e1
de
d4
18
e3
ca
bd
c5
a5
b9
f1
f8
cd
ef
f2
53
52
f2
4e
3a
4e
3a
51
4e
33
36
17
29
48
39
15
e7
e2
0a
de
be
c9
10
a8
96
d6
e1
c3
cd
bf
c9
e0
01
ff
eb
58
44
56
49
4e
0e
42
55
14
4f
2a
fa
f5
ed
0c
53
02
d0
cc
c8
04
e3
ca
b4
52
22
ec
b9
10
df
bc
e2
3d
fb
f1
d6
0d
d9
ce
d4
cb
c0
c2
a9
2d
f8
0d
e9
19
05
18
06
0e
c2
08
d2
f5
df
0f
d6
42
28
16
37
63
36
41
73
3b
fd
13
13
41
fb
e8
0a
f5
f4
06
04
ef
d3
27
01
bf
c1
df
f7
27
03
0b
05
f2
bc
d9
bb
d1
81
ad
ba
c6
95
91
d5
02
db
ea
04
fe
00
19
ec
ff
e1
d3
ed
0a
ed
e9
d8
d4
e0
0a
04
1e
3c
5b
f1
05
f1
e9
20
1a
cc
dc
28
2c
fe
09
f5
09
fe
26
24
fe
4a
4c
00
4d
23
2e
26
52
29
de
db
4e
17
ee
22
31
45
40
18
23
57
13
31
1f
0c
08
f0
fb
ad
d9
19
a6
d8
fd
2a
d6
fd
32
2f
f8
ed
e7
c4
01
f9
04
29
f3
11
fa
0d
f7
fb
e9
29
1d
08
de
f8
f4
f9
35
e9
2e
2b
20
f2
2d
0c
30
01
d4
fa
07
17
00
21
3d
08
e9
3f
2e
21
ed
0e
1a
11
0b
24
2d
25
3d
42
d3
db
16
2e
3a
51
0b
05
6c
70
01
1e
2e
72
ff
05
1f
11
28
e9
f6
04
2c
02
14
0a
1a
1c
18
06
e3
39
07
0d
d9
55
45
05
ee
53
2d
ea
0a
19
e4
a6
0a
f5
f1
f8
1c
26
36
f7
65
5d
69
27
a9
dc
43
23
25
32
40
37
2a
56
4c
26
55
76
21
34
5d
31
06
27
db
ce
d5
e5
b0
9f
a0
bb
a7
81
ae
bb
cc
9a
cd
ed
d8
ee
0e
de
0b
f6
e9
ef
f6
ef
14
db
f0
64
35
f6
15
12
f8
ba
e5
c5
cf
b8
f4
a2
c1
e7
4c
09
22
37
eb
02
f7
fc
e7
01
f6
ee
ec
f7
e1
eb
e9
f2
dc
f3
ea
dc
e8
f4
f1
ff
00
f9
f7
e8
df
f0
d7
c3
d5
ea
f0
f6
fb
f5
e8
f3
fc
f6
f2
ea
ff
f6
e8
ec
ed
ec
e8
cd
02
02
00
05
ea
f8
05
f9
fe
fa
f2
f4
ef
fe
e6
dd
ee
ed
fb
f3
fa
f6
fd
e8
ed
fd
f3
f0
e0
f6
f9
27
f7
e9
f5
e6
c0
e7
e8
e5
d4
d4
f4
cf
ea
eb
81
fb
01
22
cf
de
e0
ee
d1
e6
c9
e5
c5
f1
de
ea
f9
fb
f4
fa
f4
fa
f7
f7
f1
e3
e9
ec
f4
fd
ff
06
de
e6
ed
f3
e3
e3
f6
fb
ff
f4
00
01
ef
00
f7
f4
fe
dd
e3
fc
dc
f3
ed
f3
f8
fd
0b
f7
f3
f0
e7
06
00
05
e7
eb
d7
e7
02
ec
df
e5
f1
f8
e8
f2
04
f3
df
e5
ef
00
03
fa
fe
fc
f2
eb
df
e1
cf
ec
d2
e4
f6
ff
fb
f9
d6
f9
dd
c7
d4
e5
db
c5
e3
e5
d3
dd
fb
f7
ed
03
f2
f4
e0
f2
f6
fb
f5
f7
01
fe
0d
f7
01
fa
fd
c9
06
d6
ea
de
e1
de
e7
db
f0
f0
f0
dc
f0
f0
e0
e3
e8
c5
01
d0
f3
df
eb
c9
df
cd
e0
cc
fe
03
fb
f7
f4
f6
fc
fb
f1
fd
ff
01
f7
fe
f6
f2
eb
02
f2
fe
d4
e4
ff
d6
ce
cf
da
da
de
d2
f0
e6
f9
f6
f8
f6
fa
f1
f3
f9
fc
fc
f9
f7
09
fc
00
ff
f8
01
f8
fa
fc
fb
f4
fa
03
02
f7
f8
02
f0
f2
ff
f7
01
f2
04
ea
e3
0a
dc
ee
f8
eb
cf
e2
dc
cc
c1
02
f8
f3
ff
f9
d6
fe
fe
df
d6
dd
0e
f5
e8
f0
df
d9
d9
d3
ec
df
f6
e5
fb
de
ed
ea
e8
0d
e2
dc
e4
02
f6
fd
01
f8
f0
f5
fa
f9
ff
fb
08
04
05
02
09
01
02
f9
ff
fc
f8
f5
fb
17
f5
fc
ef
fc
03
07
08
fc
f8
fd
ff
00
00
fc
03
04
03
fd
02
02
01
ff
fb
ea
f6
ec
f1
f6
fd
f9
fb
f5
fa
ff
f1
fa
f0
f6
f0
f2
f9
fe
f5
fc
ef
e9
fc
fd
ed
ec
f9
f9
f0
e8
f3
f1
d4
e7
f8
f1
e9
e1
f5
f2
fb
f4
ee
1f
1e
1a
00
f9
13
f8
f5
14
0e
08
00
d8
d6
c3
df
d9
f8
ec
de
f1
f5
ff
f8
ed
e2
fb
e9
e6
ed
e6
e6
e5
e8
f2
ee
ff
f5
f5
f2
e9
ec
f8
fd
05
0a
03
fa
f8
03
00
04
04
e7
db
fa
0b
0a
05
04
0e
fb
ea
fe
f4
fe
e7
f9
01
15
1a
0b
10
1a
0d
f7
05
1a
fc
f8
06
14
f3
e5
e9
e9
f8
fc
e1
f8
1c
10
ff
f1
fe
07
ff
fd
eb
fa
1f
f5
19
0f
f4
ee
07
1c
07
f8
ff
fb
0b
ff
0a
0f
f8
fc
ec
f9
f7
dd
f7
eb
fa
d8
e5
f3
06
f8
f7
01
03
16
0e
ef
2a
7f
56
fe
03
0c
04
10
00
0e
fb
01
ec
f2
f4
ff
03
0f
0b
05
ff
17
f3
0a
f7
19
f9
01
fa
09
0c
01
ee
08
01
0b
fc
e8
fe
f7
07
fc
ed
fb
f9
f4
ee
06
fa
f4
ed
f9
f0
14
07
04
ed
18
fd
0a
ee
02
f8
01
ea
01
0a
fd
f5
e9
ec
ff
f3
fe
03
ee
f3
ea
fb
0a
df
da
f2
f2
14
e8
ea
f3
ff
00
03
f9
0c
ff
ef
fa
f5
d7
ed
09
06
fa
ef
01
ff
08
0b
fd
05
eb
f9
f0
f2
e8
e7
06
f2
f0
0a
08
fb
03
0a
fc
eb
f0
02
0b
dc
e8
eb
fd
f2
e1
e8
f0
08
00
ea
e2
05
f6
f6
fe
36
01
e4
ee
00
03
fe
07
f1
ee
07
f8
f3
db
ed
fe
f0
e8
fc
f0
f3
e6
f3
ff
fc
02
07
ef
06
f3
04
f4
f9
14
18
00
fb
0a
22
fb
ea
f5
f4
ed
f9
f7
ff
f8
ef
eb
05
f0
f6
f0
2b
14
f5
f6
0a
09
0e
16
f4
fa
f9
f5
eb
f9
f4
fc
f3
f9
f7
ee
07
0b
11
12
e9
00
f8
10
00
f2
fe
14
0d
f9
00
f3
ef
fb
ff
fe
fb
ef
f8
f8
d9
02
06
fe
07
06
11
0d
ff
2e
fe
01
00
e6
00
f8
ff
09
07
fd
04
fc
0b
e1
f1
10
fe
1d
1a
07
f4
f7
fa
fe
fd
fa
f2
f9
fb
fe
fb
ea
f5
06
f9
f3
0c
0f
f6
e8
02
04
f2
01
ef
fe
fe
f3
fa
15
fc
f8
fd
f9
f2
ff
fe
f8
e7
e4
f7
e4
ef
f2
01
fe
f9
02
07
e9
fd
ff
f9
e3
f3
fb
fd
f5
00
f5
06
f9
da
f5
f7
04
e7
f9
10
f9
f9
ff
04
f6
fb
ef
d6
fa
1e
11
dd
ce
e3
0f
f4
ce
dd
fd
14
06
0b
0d
0a
01
0d
13
07
0e
fd
07
fe
0b
06
f6
03
f8
08
f9
fd
f6
f3
02
ff
d4
c0
eb
01
2e
20
02
fd
21
18
11
f3
f2
f4
03
03
f4
f7
19
fd
ec
da
fd
05
f5
e6
04
01
02
f9
fa
01
f4
f7
10
fd
f3
f9
04
15
0f
fe
01
04
ed
ea
fc
01
cb
94
d3
27
ef
c7
ff
22
e8
e7
da
fa
08
39
e3
f7
0c
33
fd
e2
0d
0f
df
fa
14
20
07
09
fa
1d
30
0c
0a
19
45
1f
38
39
40
09
2d
4a
38
10
e7
f8
15
d4
f7
df
d8
dc
18
f5
c5
fa
fc
03
c2
37
62
1a
1b
54
7f
0a
fc
14
22
09
00
ef
ee
ec
eb
e9
fc
be
e9
ec
aa
c4
f9
cd
e8
fc
f2
f8
f9
fc
00
35
d6
a9
ea
f9
f4
d4
e0
21
0d
fe
e0
17
12
01
ea
de
f3
1d
1c
f2
e9
27
24
e2
db
fb
ed
f9
fb
c4
f5
06
e0
e6
e7
f8
db
f9
0d
08
63
76
47
fe
4f
4a
1c
fd
24
f1
09
10
ff
19
00
e1
ce
f7
ec
19
ec
e3
fc
00
fe
fd
f2
e2
dd
19
fa
ef
df
f1
f7
e3
fa
e8
f3
e2
de
de
f1
f7
fe
c5
f7
1e
5a
5f
29
1c
30
5f
30
10
eb
f6
05
f9
f5
bd
e6
12
ea
d4
f4
1f
e6
df
fd
f6
a9
ab
ca
09
ec
f8
f4
09
f8
14
0e
ff
e6
13
f4
08
19
00
20
1d
05
14
21
27
27
03
f9
16
23
04
26
21
01
fe
05
e0
a1
c6
e1
d2
d5
b8
0e
f9
fc
ee
27
e5
f0
f2
dd
16
5a
3b
10
fd
44
27
20
fe
07
ee
ca
05
13
f8
03
29
19
be
12
0a
01
fd
e4
11
e8
ff
f4
24
26
24
c9
15
4d
3a
fd
fd
f0
01
f6
f0
df
26
16
f0
ed
f0
12
e0
dc
ed
01
e8
1c
08
03
f7
26
0d
0c
d8
0e
f2
e9
0c
ea
bb
d0
ea
e9
e9
19
f0
d5
f5
39
f4
00
03
e3
e1
f5
17
f8
da
02
e0
e0
fd
ff
e6
f8
fb
f8
18
f8
e9
02
fd
fd
fb
f9
f1
f7
e2
d7
ca
f7
ee
c8
e1
f6
02
d9
d4
f5
bb
e0
e0
ec
00
f0
f7
0b
ef
ef
0c
0c
ea
d6
f1
dc
f7
ec
fa
d4
08
04
01
cd
f2
f9
1e
10
e6
f2
33
13
f3
01
25
04
ff
fe
fe
0b
d6
ff
ea
f6
07
14
38
19
02
29
1d
06
e8
df
d0
e1
05
15
f1
dd
30
3f
3b
1e
23
1b
08
09
18
e5
c4
e4
ea
eb
e7
01
f3
e3
c9
e3
f1
fe
dc
d2
e2
f4
e3
ec
18
ee
09
fb
0c
f2
fe
fc
fd
a0
af
d3
ff
fc
00
ff
23
0e
01
06
0a
00
e9
26
04
e3
ec
12
0a
f4
e9
f5
f9
02
de
ec
d8
00
dd
df
ef
04
f8
e0
00
17
01
ef
18
07
0c
f3
f5
09
34
22
f3
1a
2d
fe
f4
cd
d4
0b
f7
0e
33
19
f1
e8
df
fe
0a
7a
35
09
7e
3e
59
fe
3d
28
ff
eb
e4
d1
f2
ec
0a
c1
bf
e1
e1
fe
b2
d3
c4
e6
f7
b3
eb
18
03
c2
01
e7
14
e8
a8
e8
02
3b
f3
1c
22
0d
09
2d
1e
f9
d6
f4
e8
fb
e2
e4
c2
e4
db
c1
03
f4
fd
b6
3c
1d
27
7f
4a
1f
01
3d
ec
01
cc
41
1e
0d
f3
0f
ee
e4
ff
0a
cd
f8
b8
13
20
0b
1c
e7
4a
28
fc
2c
76
13
03
f7
13
f9
01
ea
c2
89
ee
20
12
fa
1c
f9
0d
d4
50
56
2b
1a
19
7d
5f
01
0c
1e
ec
04
16
05
02
29
f6
c6
0e
28
cb
29
04
3e
23
20
f5
c1
c0
e1
b9
de
1c
f3
a5
df
e6
e7
d2
e6
2e
3e
11
f7
f8
24
15
0c
08
40
4e
1e
0c
4e
65
24
dc
35
2f
f9
bd
41
8e
b5
cd
ec
cb
b3
12
dd
e2
e0
30
db
02
1c
56
10
0d
13
03
c8
e2
08
02
ab
01
d9
f0
f2
f0
ff
f5
1d
ea
cd
f8
ff
fb
db
1e
eb
c5
fe
af
1a
ce
ac
03
01
ba
fc
23
ec
ee
64
de
1d
de
1b
cd
13
e6
0d
05
25
3e
15
06
24
12
fd
0b
30
5c
39
17
e9
07
19
d2
da
d2
c1
db
26
0e
d4
f7
19
24
eb
24
24
3e
02
1c
05
54
07
f3
fd
40
1f
cc
62
36
2d
ef
f9
16
f6
e5
b2
cc
07
09
0c
ea
fb
18
36
2d
1e
cc
03
0b
eb
00
68
5e
ee
41
ed
bd
c1
10
3a
1c
54
f5
04
0b
c1
ff
09
12
fa
03
27
f0
eb
e2
c5
b1
fa
ae
e7
d0
15
ee
00
13
f9
f7
cc
bd
ed
e6
ae
9e
fd
0e
f4
e1
18
20
1d
e2
c3
fb
33
cc
a2
f6
ff
fb
e7
d2
c5
f1
09
fa
15
24
fd
f3
02
16
dc
e8
b9
f9
ee
1a
02
ce
e3
01
f1
a9
c0
f8
e8
cc
e0
15
ee
c8
e2
2f
14
16
00
35
4c
4d
10
5a
27
db
f5
30
fb
e7
37
b1
04
2f
f6
a8
f9
47
40
0e
27
e8
fd
f0
2e
08
13
0d
fd
fe
c8
e7
e5
f6
fd
c7
e9
df
f3
23
e9
e8
ff
d5
14
f2
fb
d6
ec
9e
fc
0b
01
dd
de
ee
d7
c6
18
1f
f0
f3
30
dd
e7
d9
d9
0d
fd
01
d6
12
f5
22
e7
0e
01
15
0f
39
e2
da
0e
de
e9
e0
19
ed
0f
39
03
0d
16
0f
cf
db
e3
d0
f8
da
da
0b
0b
d6
0f
e5
f6
e1
95
bc
dd
31
07
04
14
f8
df
eb
f7
91
93
d2
b2
f7
01
ea
d4
11
e4
d7
04
fe
fd
c2
c7
07
09
e5
ca
ff
e3
c9
f5
ec
fe
fe
d1
27
d2
e9
d8
f5
db
e1
f5
e2
d0
c5
c9
f7
e8
09
d8
fa
cf
a8
d1
ed
d6
d0
a6
f8
fb
f7
d9
c0
c3
b8
93
d5
c9
c9
b1
b8
f3
c2
d5
8e
ef
b1
df
af
10
bd
ee
b9
95
a7
da
b8
d0
d9
eb
e2
cd
11
f3
e4
c7
11
cd
ef
e6
f9
e3
ea
db
d0
e1
c4
e7
d5
d6
fe
f0
d0
07
14
e4
ef
d3
b7
ec
0f
ff
11
db
d5
03
08
d6
da
13
df
b6
1d
1c
f8
fc
da
e3
ed
ed
cd
ed
b4
96
d7
db
aa
c3
aa
fc
f3
c4
f3
0f
c5
ba
08
dc
fb
d6
d9
16
0b
d3
e1
f0
92
cc
9d
c9
f7
dd
e4
d4
b3
e6
ce
a2
c2
d3
be
de
f5
d5
d9
c5
10
ec
f7
ed
f7
c7
e3
c0
d1
fb
c7
b4
f5
f9
1e
f0
1b
f1
e0
ca
f5
cf
db
e3
c6
d2
d3
b7
14
e7
0d
cd
ee
c4
c4
82
f0
96
ca
b8
bb
af
ae
c9
09
ea
d3
cb
ef
f2
df
cb
f0
cf
bc
eb
c7
fc
c8
d8
eb
df
0b
da
e0
cb
fb
f8
d7
a8
c0
eb
df
da
fb
b0
e5
bf
f5
fa
c8
f7
d8
c8
eb
ea
e8
d9
0d
00
17
1a
e6
e6
ef
16
16
de
ee
13
13
17
e8
d4
ed
fb
21
1f
17
e6
eb
e3
c4
1c
f7
8d
f5
ce
bc
81
b5
db
fd
8a
a6
8d
b9
b7
ef
dd
f9
eb
bf
d6
08
d5
a5
e5
ee
b4
ae
da
d3
d3
c6
eb
98
b3
fb
c9
0d
ee
dd
f0
bd
cd
c4
c9
b5
ba
11
ce
07
0a
d3
de
f9
0c
f2
ec
e5
03
01
e9
00
dd
0e
1a
d9
f5
03
0c
e0
f5
dc
ad
04
d6
eb
03
f9
00
ea
e4
d5
08
1d
ea
fd
1e
db
f8
03
f6
ee
d6
01
fc
f1
f3
02
1a
f1
e8
07
15
0a
e8
0f
fe
c6
dc
d1
d7
d8
0a
1e
ee
e4
cb
e1
f5
f2
e2
ff
e2
f1
c9
f5
d8
e5
f6
f3
e1
f7
cc
1d
ec
17
ec
f8
f7
f8
c4
f5
d2
d4
f5
ec
d0
cd
ec
de
bc
97
db
9c
b4
c1
e8
c2
bb
f0
fe
19
26
c2
b5
dd
eb
c1
cd
bc
ff
b2
e0
bd
09
c8
0d
03
10
dd
df
e7
14
f9
c8
e8
f8
fc
0a
0f
16
fe
0d
f9
04
d2
e9
e3
ed
d0
d8
dc
d3
d6
dc
cf
d4
0c
e4
cf
d3
f0
ce
e0
e1
e5
db
e7
e8
cb
af
ca
bc
ee
e8
f1
fa
dd
f1
d2
f3
f1
e4
d4
f1
d3
dd
d9
d7
eb
f8
04
ff
e4
ee
fe
f5
eb
d6
e1
e0
e0
e4
f3
e4
de
cc
e2
d4
da
e6
e5
da
ff
d4
e4
d9
fe
e7
e2
d6
da
f3
e7
e9
d7
cd
9f
be
d0
a5
9d
a5
d9
d2
c9
d8
81
d4
df
eb
a7
ab
d3
ca
9b
b1
b0
b9
ae
e3
cc
dd
f8
f2
00
f5
fd
eb
fc
e1
f1
d9
d7
fa
e8
fa
f3
f3
cc
b6
e6
e6
df
df
db
eb
f2
03
fc
f3
c6
e3
ed
e0
fb
ea
e0
f7
de
e8
fb
f6
d2
d9
ed
01
dc
e3
f8
e3
f7
e2
e5
ed
c8
c9
eb
e6
c6
c1
d0
e8
df
cb
eb
de
ed
f3
f5
e0
e0
db
04
00
ee
d4
f9
c8
a9
d4
cf
cf
fe
f5
02
08
c3
e5
db
c1
bc
c4
d6
a6
dd
d0
e1
dc
00
e4
e9
f4
ef
d4
d5
db
e3
d3
d9
dd
f8
ec
e3
02
ec
05
04
c9
e9
cb
dd
d6
d9
cc
d0
c7
e0
d9
da
d9
f1
eb
d1
af
d1
c2
b5
bb
e5
c1
cd
ad
f2
c6
d2
a4
00
e7
f6
ee
f6
02
fa
f2
fc
f6
ea
ff
ef
f8
ef
e6
02
e7
f3
f8
d5
db
c4
e8
cb
be
c8
cc
d5
c7
d9
e1
e0
ce
e5
da
f2
f9
e5
ec
f7
e8
ea
f9
f8
f9
eb
f5
0d
23
17
18
fc
f8
ec
f3
0b
f4
f0
ed
ff
f8
df
00
e2
ed
c9
cb
e0
da
cc
cf
d6
ca
bb
b0
b9
b0
a9
b9
11
0a
07
d8
dc
e8
db
a7
da
c5
cc
cf
c4
c8
d9
b3
d4
b7
c8
cc
e1
e3
dd
f5
eb
ef
ec
e5
bf
d6
b6
b7
fd
df
f6
fc
ea
f5
f5
f2
e0
f5
e7
06
f4
09
f1
f7
fa
f9
04
f8
f8
e8
fd
e7
fa
ed
ee
04
f4
ee
f7
f9
02
f2
08
fa
ed
ec
00
06
f1
eb
fa
ee
f8
f2
f2
05
cb
d8
ef
e3
e9
e9
ed
01
e9
f4
f8
01
fa
df
f6
d1
eb
df
fb
fb
fa
da
ed
00
f8
ea
e3
fb
e3
d6
d7
e3
fb
dc
df
f6
ed
ea
db
ef
07
fa
e2
e9
02
d6
d4
f1
df
0a
06
0b
e0
dc
d0
f3
c5
bb
ce
bf
ca
d4
d2
f9
dd
f0
f6
f3
de
bf
c9
dd
c7
cd
cf
b7
c8
c4
d8
e0
05
ee
e3
ed
ed
e4
dd
e0
f9
fe
f4
e3
f8
f0
fb
f4
f2
fd
f1
f0
cc
ef
f0
db
da
ed
d6
e5
cd
e0
d7
e8
1d
e6
db
e1
ed
f4
f8
e1
f3
c9
dd
e8
e1
dc
d4
ca
f5
e9
e8
fc
ed
ef
f1
fd
ed
d8
f8
e2
e5
e9
d7
ed
2a
15
2f
22
f7
f5
f3
fd
00
f4
ec
eb
08
df
e4
f5
e1
ea
f1
e0
eb
da
ec
e9
04
f5
ee
ed
f3
e0
f3
e4
ca
05
ef
f2
d9
db
d4
c7
d2
d6
ac
d9
e7
eb
de
02
94
e5
d4
e1
a7
e2
c0
ce
81
e3
bb
cb
9f
c1
c3
d0
fe
fe
fe
03
f3
01
ec
f6
0a
f8
eb
01
e9
eb
fc
fd
d7
e2
df
fc
d6
e2
e3
e9
ed
ed
f1
f7
f7
02
00
00
06
ea
dc
06
e9
db
d5
f9
09
f8
ef
eb
f8
f6
f0
e8
e7
f6
dd
de
df
e7
ee
eb
db
db
ef
f4
f2
e1
f5
fb
d6
f1
ef
ea
ee
f8
05
e9
fe
ef
f1
eb
ba
d2
e7
e7
d5
f6
f6
e8
cd
d1
e8
d1
da
ce
ce
c0
f0
e4
c5
db
e5
e9
ec
ec
02
ee
d7
f9
06
e5
f9
e0
f5
ef
ea
e9
ec
ee
f5
cd
f3
d8
f4
f3
f2
ee
dd
f2
e1
e1
ed
e8
f5
de
d0
be
e4
b5
df
b6
d9
e7
de
d3
ff
df
f9
e9
f4
00
f8
ea
f6
00
fb
f7
ea
ea
08
f8
fb
fd
01
ec
08
f3
04
f4
ee
e7
e9
de
dc
c4
e4
e5
14
da
01
ea
f7
df
dc
f1
e1
ec
f4
e5
fe
f9
f1
02
f9
e1
ed
ee
fc
ee
de
ff
00
f3
ec
fe
05
ed
02
ff
05
e8
fa
01
e4
ef
e1
ca
fb
e3
c3
cc
eb
ed
cc
c1
e2
c9
e7
c0
08
0c
e9
e5
f9
d2
de
b9
d0
da
ed
b8
c8
e4
f1
af
b9
ad
bb
b3
da
f3
ce
f9
e0
e3
de
db
e4
da
d3
cc
f6
f6
fc
ff
fb
ee
ef
fa
e8
f9
f5
fa
eb
01
01
00
f3
e3
0a
f2
03
06
f2
e4
f6
fb
f3
ed
f8
ec
ff
fa
07
f7
07
f2
e9
ff
fb
eb
08
f1
e7
f9
01
ee
f1
0a
fc
e5
dd
f3
f2
ea
e7
e8
f1
06
f7
04
f4
d8
ee
f2
df
ff
03
f5
f6
e0
df
e5
f5
f1
f7
fb
02
e6
f3
fc
f0
cd
e3
ec
fa
cf
df
e5
f6
d6
ec
da
f1
fb
f2
f7
e0
fb
ee
0d
de
df
e8
ff
cb
d8
c0
dd
df
12
e4
07
d7
ee
07
e8
ed
c8
de
ef
c7
e3
ee
cf
cc
f7
e5
fb
04
ef
f9
03
f2
f1
e3
f0
0f
f2
05
ee
02
0c
07
04
0a
ef
1e
15
d0
f5
34
ee
e1
fd
ef
ef
0c
e0
d7
04
fd
ea
d4
0e
ef
0f
29
25
cc
f0
0b
23
cd
ae
e8
05
e3
ec
f7
f0
f7
fd
f0
d7
01
0a
e2
d6
f1
02
f5
f3
37
13
f3
9a
29
eb
df
e9
40
65
18
cc
49
47
1d
ca
f8
df
d1
c1
f7
c5
dd
de
07
f9
05
f8
1b
1c
3a
0b
f1
ae
ab
d2
ff
ab
a0
f7
1b
e9
df
00
1b
e2
be
e1
cd
bb
da
d5
f2
fd
0d
02
3f
39
f5
2f
34
e4
e2
03
f1
37
2d
0d
08
34
18
3a
12
11
70
5c
c8
f6
d9
e9
e6
d4
ee
d9
ec
17
ea
e4
ba
d5
91
07
c9
b0
be
1b
f6
13
1e
03
4e
56
26
f2
5a
3a
df
d5
f8
ea
eb
f5
e1
d3
eb
1b
c2
aa
a4
df
c5
a9
d2
00
0f
c8
fd
25
1a
d9
db
cf
ed
d8
ef
db
f1
be
d0
02
06
d6
d2
e8
0d
0f
08
e5
ee
db
ce
b1
f1
05
ee
e0
f4
05
f2
f8
03
0a
11
00
fa
cb
ec
11
e9
e9
db
09
04
25
0e
0f
ed
ef
f9
fb
c3
dc
fb
fc
b0
df
13
0b
df
da
fe
de
d5
ed
c8
d0
fc
fc
e6
1e
e4
db
06
25
fc
d7
fc
31
26
04
fa
0c
1b
08
02
00
f3
ff
dd
d6
f0
17
c7
c9
0c
0b
f6
db
f7
fe
17
dc
e5
01
0a
01
01
06
ee
d0
02
d9
01
2a
09
e0
e4
1c
06
fc
11
15
db
15
54
04
12
06
0c
1d
41
13
30
26
11
f8
18
2d
1d
e7
07
08
28
d5
02
f8
cd
b3
ac
d8
19
d8
d0
00
18
ff
f3
e0
11
fa
fe
40
0a
f2
f2
1e
fd
1c
1e
f6
03
f8
ec
f0
1e
16
de
ea
36
ed
0f
1e
38
24
29
22
26
31
1f
ed
2a
62
23
04
3e
46
28
17
1e
2f
16
ec
b6
f5
f4
eb
4a
49
0e
dd
43
34
e6
fa
0c
03
e8
f5
ed
ef
0c
1d
e4
ee
10
01
dc
eb
06
f1
ed
08
27
01
fc
0c
2c
ed
d0
dc
e8
0a
e4
d2
48
52
e4
3a
7f
7a
f5
39
75
e8
dc
c4
07
49
d4
b3
c0
d8
33
d9
f2
12
23
2d
e1
fb
f8
02
40
1d
cf
ca
2f
05
e0
be
ee
ef
f1
dc
17
06
ed
f1
fb
01
fb
07
ef
fc
eb
f6
00
ed
ee
e9
d5
00
e0
ef
d7
ea
f1
ee
cc
cf
04
e3
e7
f6
e1
b2
d3
02
15
1b
0a
22
f7
29
2f
1d
08
f8
ec
0b
4c
df
ff
19
f8
ea
e9
0a
d3
ed
e0
dd
ba
d2
cf
e2
e3
eb
cb
df
d3
eb
b9
e4
dc
da
f0
e9
e6
f5
ea
05
bf
ba
b1
b7
df
e5
f7
e6
f9
ff
e1
f5
e5
ed
c8
da
ef
d7
cf
e4
de
f5
04
ec
02
de
f8
fc
ee
00
f0
ea
f8
db
e5
f8
e9
da
f7
db
fc
d4
f5
e4
e8
d2
e4
d7
e5
ed
db
d5
bc
fe
06
e4
db
a8
d0
d2
d8
88
b4
c8
ea
c5
d4
cc
81
05
f7
00
84
87
84
df
b4
bd
cc
e3
95
c9
88
be
02
f9
04
f7
05
ea
fe
f6
fc
ed
e3
e2
01
e7
f1
e9
e1
d4
ea
fd
ce
e4
ec
03
de
ea
fd
f7
dd
f4
e7
f0
de
e7
ea
0d
ce
cd
ca
ee
f0
db
03
ea
f4
fa
04
ef
fe
eb
ee
06
be
d4
e9
fa
d6
c0
bb
f9
f5
d1
ea
e8
ea
f0
e4
04
10
e1
df
f8
00
db
ea
eb
a9
aa
c4
c0
fe
0f
00
e4
d8
e4
c7
bb
c1
d0
db
a1
e0
dd
dc
dc
04
ed
eb
01
fc
fc
e6
d4
ed
da
ea
d0
fd
de
ea
f7
ff
e7
f9
d1
cc
bd
f7
b5
d3
d5
ea
b9
e7
f5
f8
ca
f1
ec
e1
ab
d8
c6
bc
aa
ce
bf
e7
b7
fe
cf
b9
bf
e9
e9
05
02
eb
f3
f1
f8
e1
00
f3
f7
fe
e0
fb
f6
f9
f9
f6
ec
da
c6
c9
c9
c6
c9
ae
b7
e8
da
e4
ee
ed
f9
d9
d9
f3
e9
03
fa
fc
eb
fe
f8
f1
df
ef
02
16
06
11
2a
ff
e9
e3
f8
f6
fa
07
03
ea
fe
fe
f9
e0
d6
f3
9a
c0
ae
ab
c7
9e
e6
d5
92
ce
ad
cb
98
ea
e5
ed
d2
dc
be
d6
b3
b6
d2
e5
d4
db
d4
e2
c8
d0
d0
db
e6
d3
d3
d7
d3
bd
c7
c0
b0
d2
c4
c5
b0
e5
ef
f7
08
cf
f5
f0
f1
ee
f2
f4
f6
0b
f8
0a
07
07
f6
ff
f0
e9
e0
f6
fd
e2
e4
e3
de
03
ef
fd
e4
f2
ef
f2
0c
04
f9
f1
fd
01
01
05
e7
14
f4
ed
0d
e1
e5
d6
fb
fb
fc
e6
fd
e7
eb
ee
fb
e1
de
e6
e2
df
03
f9
ee
f0
ea
d7
ee
ef
f7
d8
e1
df
d1
e4
f9
a5
b2
9d
b5
e6
a9
cb
c4
ca
b1
aa
b0
f1
c5
ca
bf
ea
20
05
f7
e7
e1
ee
bf
da
d9
bd
c1
e5
dc
c9
d0
02
06
04
f6
02
d1
d4
ee
ea
de
e6
ca
de
d9
f5
d5
e7
e5
e4
e9
df
e1
e6
fe
f7
f6
00
f0
05
f7
0e
fc
d6
f4
f2
e8
bc
f4
e3
e4
d2
07
d4
d6
da
06
c3
d7
d7
d4
d5
c1
fe
fe
1a
f8
d3
dc
fd
f3
bb
af
c2
dc
05
24
15
20
df
ec
ec
ed
d5
e9
d1
e5
d6
db
c6
d3
e4
01
ee
02
e9
ff
f0
01
ea
f7
fa
fd
e0
d6
dc
f9
08
db
f9
e8
dd
db
e0
de
dc
d1
e4
ef
ef
f2
e1
e7
c9
20
e7
e2
e0
82
8b
d0
de
a4
c1
ad
cb
de
e5
d1
b6
f3
f9
d7
b2
a8
c9
c7
95
a5
b8
d3
94
a9
b5
e1
fd
0b
fa
fd
e3
ea
e6
e6
d5
e4
cd
d7
f3
f7
e8
cd
c9
db
d7
e9
d3
dd
e7
eb
d9
f7
f0
f3
d9
f8
ff
f2
e1
bb
bc
d6
de
f0
de
e1
e6
e0
f5
d9
e7
e9
e6
d4
ed
fb
f8
e5
d9
d4
1c
07
b0
be
ea
f0
b7
c0
dc
e2
bf
e0
dc
de
fb
0c
ea
fc
ee
ed
e1
d6
8c
c2
99
ca
d7
e4
fe
00
c6
af
ba
af
99
e8
e5
81
d6
d2
cc
ae
d2
d2
e1
f5
e5
f1
db
ee
df
c2
d5
d9
da
f4
f7
08
f6
e6
ef
ca
dc
c7
db
da
cd
df
d6
dc
e5
dd
df
e6
d7
dd
d7
b7
c8
b2
b0
b3
c6
be
b9
b9
d8
cf
cf
b2
06
07
0e
fd
fc
06
0c
03
e9
f1
fc
fd
e6
f8
e6
fc
ef
f7
02
ff
be
94
e0
e9
cb
ce
cb
c7
cd
c5
c4
e8
fc
e3
e2
d9
fa
06
0e
14
eb
e5
d0
eb
e9
da
d2
eb
ee
ed
e3
dd
ec
00
f6
db
01
13
fb
f5
e9
fb
f3
e5
c2
00
f2
df
de
bb
bd
d9
f2
d7
cb
c1
c6
98
b2
8e
f2
e1
e0
a3
bc
a0
ba
8a
c8
cd
d8
a8
c7
d4
f9
b0
db
cd
e5
cc
ef
c3
df
d8
cc
c0
cf
d4
c8
d3
ca
c7
ee
ee
fc
ed
e9
f2
f3
f0
db
f8
e9
f6
ee
03
f2
fb
eb
f1
e0
f5
e7
fb
f2
e6
eb
fb
fd
f5
ff
1e
02
f1
f4
03
04
0b
fb
f0
f2
f2
f6
fd
f0
f6
02
fc
ff
ff
d9
e7
eb
f0
f2
00
e6
dd
f7
f0
e9
f2
e9
f7
e1
dc
ef
e2
fc
f3
ed
db
df
fd
eb
db
e5
e6
dc
c6
d9
f2
ee
d4
de
00
de
c8
d0
d7
d3
c7
bf
d6
f8
fc
04
ed
c2
f1
ed
ec
de
e2
ca
d3
ca
c4
c9
d7
d1
cc
c8
db
f4
ec
f4
ef
eb
c6
e8
f1
d2
e1
eb
e4
ce
d6
e6
e4
d5
e9
d4
fe
ea
04
e6
fb
e3
14
fa
01
e6
f4
f8
f3
0a
da
eb
f9
f6
d3
ed
fc
d4
00
cb
f6
ee
d4
fd
cb
0d
b8
fd
e4
dd
08
f3
f4
eb
08
dd
d2
0b
ad
e0
c6
13
c6
00
db
0f
10
e9
13
dc
c8
ba
e8
cf
be
db
ee
0d
01
d6
d7
ec
e3
01
d5
06
de
00
dc
f6
0d
cd
05
ef
f3
d7
d9
cb
f0
fb
d0
e6
d9
cd
db
cd
01
04
bc
cd
ef
fe
ed
f2
d2
db
c0
0d
dd
a0
da
d9
04
c3
0f
bf
da
f4
f7
ef
b7
b2
db
ce
db
d0
e3
e4
e2
ea
e7
dc
f0
00
d0
17
02
0c
21
d9
c8
af
0c
fd
0e
eb
f4
f5
d7
d9
00
0b
0b
d5
0d
f8
0a
00
21
cd
e2
0f
fe
fd
b0
db
f4
00
fe
e9
ae
e1
ed
00
dd
ed
da
c6
c4
e3
ed
e4
d7
f8
ff
0d
e4
bd
92
ca
d5
cd
ec
d6
fd
e0
e1
e7
ff
d8
06
f9
d7
19
f3
da
01
f2
b8
e8
e7
d1
15
09
ec
c9
ed
ae
d9
05
e3
e0
d6
f5
e6
ca
db
c4
da
be
ce
eb
fa
ff
f7
ed
0a
02
0b
e4
c6
db
00
d8
00
e0
ea
e3
b4
f1
bf
f3
e8
c8
dd
10
f2
c3
0e
d2
f8
bc
c3
03
af
b0
81
e6
e9
0f
ac
ca
b7
a8
a2
f2
f4
bc
b9
f0
eb
06
0a
ee
b9
c6
f9
cc
c6
f9
df
13
13
db
0d
d5
cc
f6
b8
db
cc
ea
ca
02
c3
e4
f6
04
c1
f2
cc
e6
e8
e3
ef
03
e8
04
10
1a
e4
09
04
0e
ef
0d
0e
e4
d0
13
f2
0b
0d
e1
f9
e2
1c
1b
03
fa
19
ec
9f
eb
ea
eb
ca
cb
cc
d6
aa
cc
e0
ae
ae
09
d1
24
11
1a
d7
c7
c7
c5
f1
28
fc
e2
c7
1b
ae
bf
c4
e8
ce
cd
ca
d1
e6
15
f0
e4
d2
05
d1
be
c0
fc
ff
d5
e4
ed
d3
eb
fb
ec
fb
16
cf
1f
15
19
19
d6
03
da
14
e8
18
0c
e6
d6
e0
d2
04
e7
2e
d3
0b
fe
f0
0a
10
0b
07
d3
16
e4
f8
e4
ed
29
ff
16
d9
ca
c3
f6
0a
0b
ea
ce
da
1b
f5
f3
00
d9
f4
0f
fc
d1
d5
18
d4
dd
c9
0d
0a
1a
f2
e9
f8
f0
09
0e
0a
19
0d
fb
09
e2
01
e5
02
1a
d3
0c
15
e7
df
14
c5
d8
fa
fe
17
be
d5
cc
fc
c4
ec
f7
ee
e5
c9
fc
c6
ff
f7
01
d5
ef
e0
00
d4
07
09
26
ee
fb
ea
fa
f6
e7
f9
23
df
10
03
10
f9
e9
15
00
d1
d5
e7
fe
f2
27
1d
33
0d
48
dd
0a
12
f5
ba
f0
e0
ce
c1
d0
f8
10
1f
2b
f1
0e
09
02
f0
1f
5a
18
ef
14
22
06
e3
1d
ea
e5
fa
fe
09
ed
06
e2
19
ce
dd
f5
fe
ef
e0
fa
f6
04
fb
ed
fa
0c
06
1a
e6
d8
dc
0d
16
08
26
0c
e0
d7
09
06
b5
c2
fb
ed
ca
b0
3e
f1
0e
2b
22
54
18
ea
11
27
fd
f4
01
3c
27
e2
c1
16
fb
e0
da
cd
d0
41
11
02
ab
e0
13
14
19
19
17
d8
fc
25
4a
33
38
fb
0d
2a
1d
0f
f2
fa
19
04
18
32
05
18
c4
12
23
02
2b
27
2c
fc
06
06
7f
27
e1
df
2e
03
e7
24
f1
ff
e6
d5
c1
d8
09
e8
13
17
25
af
d6
e4
1f
ca
17
1c
f6
6a
22
36
03
fd
e5
2a
04
f4
eb
f7
09
27
31
1e
19
2e
05
c6
05
14
ec
66
e1
1f
e6
15
23
12
0e
16
0b
6f
44
34
d1
63
fb
d6
8b
e4
f7
19
e2
0e
5c
22
eb
fc
27
12
2a
fc
10
23
f6
0b
03
09
e6
11
f7
f7
f7
f2
d1
e9
ec
c0
f8
f4
11
99
bf
e9
00
ee
27
ea
07
f4
1b
e0
07
ff
fd
27
de
ee
fb
c8
09
05
e2
d1
02
0c
35
64
17
d0
32
14
29
1a
45
f2
07
f8
d1
f9
12
df
08
d3
fd
e7
34
0d
e4
ce
ec
25
ef
e7
e4
1c
e9
1c
f4
fc
f0
02
d0
14
16
e1
09
18
2d
f2
ee
e0
f3
03
3f
2e
cd
21
42
44
08
18
38
0a
00
0e
f1
09
f1
42
ee
33
eb
17
f2
e6
11
e2
12
14
f0
0e
03
fd
f4
fb
fd
11
a1
d4
c4
e0
12
c1
96
f2
29
f6
f3
d2
e9
ff
d6
cf
ed
ff
fc
e6
f5
2b
3b
36
25
2c
18
f1
db
e2
fb
2c
ed
ec
fb
fb
12
f7
e9
fb
07
e7
14
f9
fc
ea
0e
fc
ef
e4
1b
cc
f2
d1
f3
0c
f0
10
f5
d0
ef
05
e6
ca
e5
de
ff
1d
ed
f3
f7
f9
e9
07
ef
e1
ff
01
f9
de
19
d3
0e
d5
e1
fa
fb
e2
ee
e1
11
ee
f1
bd
ef
2b
f1
2b
d3
d3
0f
40
2a
3f
13
25
f4
05
f8
e9
d1
fd
e5
d2
ca
df
02
fc
e2
d7
0c
15
0b
27
06
22
7c
5c
ff
2d
38
fd
da
b8
3e
15
fc
13
f5
f1
e8
a1
f4
e7
2b
21
f0
b5
fb
e9
ca
f9
0a
10
fd
e3
e3
eb
f0
e2
e4
d1
03
de
0b
0c
fe
eb
e7
d8
f4
f6
ef
2f
fd
16
f0
20
32
59
20
18
db
e7
e7
1b
33
12
ee
e3
f5
04
0d
f9
f9
12
ff
d4
02
01
07
1a
04
29
03
f1
ed
e7
f3
f6
f9
24
05
fb
fe
f0
fa
e9
f4
ef
de
19
e7
02
0b
14
17
17
f0
ec
f2
e5
ce
0f
05
0c
02
f9
d3
f7
f1
00
06
f9
e8
05
ed
00
fe
14
de
03
0f
35
ec
f6
fd
eb
ca
e0
f5
e5
e3
ec
fe
f4
c4
f2
11
e5
f6
01
ff
f6
e5
dd
f9
ff
e9
f1
f7
04
ff
d6
01
df
da
de
eb
e1
f4
ff
33
f6
ea
fc
37
2a
18
17
0e
23
05
0d
08
f1
0f
20
fb
eb
ec
e2
e7
1a
fe
01
f1
e6
ef
bc
e1
fd
ef
ec
f2
1f
07
f3
1b
f9
e9
f8
12
d6
c6
e0
1d
fa
c8
e9
f9
f7
01
f7
02
05
33
22
20
0c
1f
0f
0f
02
0b
fb
19
0a
fc
d8
f5
e5
e5
ec
d9
f7
c4
dd
02
f4
e0
e6
eb
fe
f0
f0
e4
d9
1c
e8
e9
e7
ff
01
e4
03
f6
ff
16
19
1b
17
41
e7
06
08
f9
e3
e7
f2
f8
33
0c
f4
ea
00
04
fe
fa
05
fc
e2
f3
fe
01
fd
f7
f1
f7
04
ff
f9
eb
df
f1
0b
fb
0b
23
24
fd
13
16
e4
00
fe
f6
13
13
0c
01
15
06
03
08
fa
d6
e0
d4
ee
ee
d0
ef
fe
f9
f9
ea
f7
02
f1
ea
16
f6
e6
ef
0d
00
f0
e9
f5
ef
ff
0a
f9
fe
eb
e4
f5
f8
ef
f2
cc
c8
cf
ee
f9
0d
08
fd
cb
eb
0e
ee
f4
d9
cf
e5
e3
ca
f7
e7
00
e6
f6
fa
f7
fd
00
e1
0f
05
fd
2b
1d
79
7f
0e
f3
02
d8
e5
f7
02
de
03
fd
fa
09
04
08
e1
e3
06
1f
f6
06
04
eb
e5
ed
fa
13
f2
fb
fd
0d
1d
03
1f
fa
01
fd
f6
e5
fe
00
e8
fb
0e
f2
06
03
11
fa
38
0d
fb
ef
f9
01
07
0e
12
e9
da
06
0e
fa
ef
0d
fd
03
02
ff
05
0d
03
1d
06
18
fe
f8
fd
ec
df
e3
f4
e7
f5
1c
fd
01
fb
fa
ef
c9
02
f9
02
01
f1
fe
f4
0e
fd
fb
f6
e7
e8
da
f4
fa
0a
18
03
06
2d
47
17
f1
18
21
19
fd
1f
11
f7
fd
fc
cf
0d
cf
ba
c4
d8
fc
f9
00
e9
fd
0c
1a
05
f6
1c
14
16
25
0d
43
0e
02
1d
fc
e4
2a
22
35
1c
05
62
21
da
ec
06
ef
f4
27
02
f5
f9
17
fe
fe
16
ed
ed
05
e3
06
d6
f6
f7
e0
03
da
f6
cf
ab
ba
be
ea
f9
e0
f3
e2
fd
ea
06
aa
8a
81
d0
01
0a
01
f6
fe
f4
dc
f2
d5
e8
eb
fc
df
ed
dc
f4
f3
f9
0b
f8
08
05
f2
00
0c
02
e8
fb
08
f4
ef
f6
f2
ca
e6
bc
f6
ed
f1
01
e2
d3
0a
e5
04
37
00
ff
e3
15
1c
c6
e4
a6
c5
bd
eb
b8
b2
b9
e1
bf
cf
d8
9b
dc
ce
ec
ae
be
d3
cc
ac
d2
cf
e3
d1
da
da
dd
e9
00
0a
07
02
f9
ef
0a
e2
e6
de
03
04
07
02
10
dd
da
f2
e8
ec
05
f8
ec
e5
f6
f5
ec
c9
fd
fb
f2
da
19
fb
12
17
0c
ec
fd
eb
ff
e9
f8
f3
1c
ea
fe
06
01
1f
07
d5
dd
ed
06
e8
e5
cc
e9
fa
d2
e1
f7
e2
d1
c4
03
e7
e9
df
ea
e8
df
db
e2
ba
ce
ba
da
ed
fd
f8
f9
e8
d8
ed
c8
c9
df
bb
9b
cb
dc
dd
d9
ff
e1
ea
e9
08
05
da
db
f4
ee
f3
f6
07
03
05
fa
e8
14
09
d9
d6
e7
04
ef
e7
ee
dc
e5
e6
f5
dd
ef
de
f2
d7
bb
cf
f2
f2
b3
c9
de
f7
c0
d3
c8
d1
ae
e7
ef
0d
f9
f6
0f
0a
04
00
f9
f4
ff
ea
ee
ff
ed
ea
f0
19
d6
ee
c3
f5
09
d6
c5
da
e6
fd
ce
da
e8
e2
00
f3
fd
fa
0b
08
1b
fe
eb
04
0b
0f
ef
eb
07
08
f5
ec
fe
f1
0b
f6
e9
0d
f1
ed
10
03
ee
05
03
f4
ee
d8
cd
c4
ce
ed
de
f3
e1
b7
bb
ac
c1
ce
c6
ef
f6
ee
c8
af
f1
f4
df
9e
ad
e0
ec
d4
ae
cf
d2
cd
db
c8
8b
da
e6
d1
eb
e1
ed
d8
dc
ef
f0
d8
c9
ed
fb
fa
f5
e4
f9
fe
08
fb
f3
00
ff
f6
13
f9
fb
02
ef
f6
fc
ed
08
0f
11
d4
ea
12
f9
1a
13
19
fd
f2
12
05
f3
f9
ec
f3
0b
14
13
f8
fb
f4
f6
e8
04
db
d1
da
01
f1
06
e5
f3
f7
12
0c
02
e0
f8
ea
ff
f1
05
fc
f4
fe
ea
dc
e2
11
00
f4
07
e2
ed
dc
01
e7
f4
0f
e9
ec
c9
e4
01
ed
fd
ea
01
27
01
f7
0c
ca
0c
e7
21
96
eb
fb
ef
ad
db
ef
b2
e0
ea
d4
d6
f9
e6
0b
04
de
e0
ea
de
c5
df
d8
f1
e3
ee
d7
e3
fb
e0
05
0b
e1
fa
fa
02
ef
06
ee
ed
ea
0f
ec
f9
cf
e9
f3
1c
bd
fc
f0
f8
bf
f8
d8
db
d8
e7
f9
d3
f7
b7
d7
ca
dc
e4
06
11
ce
e3
d7
e4
bb
9f
ba
b3
0e
f8
ed
f4
04
d6
c3
04
e9
e3
d0
01
d8
e9
ed
f7
09
02
d6
06
fa
dc
e3
10
ea
02
ff
e6
06
0a
de
12
c8
ca
d4
df
f4
d7
d8
cd
ce
fd
c9
f6
ff
f2
f5
b8
c0
e8
12
fd
02
ea
ae
de
d9
ab
ab
99
c8
e6
dc
b7
81
ee
ec
d0
9b
b9
d1
d1
aa
b6
cd
de
a8
ca
c2
d5
e7
00
e4
0a
04
e8
db
e5
d3
f1
cd
e0
fc
ee
f9
f2
f6
c2
e6
e6
c9
fa
f4
10
e2
d4
d5
e9
c2
d5
d8
f1
de
f4
cd
00
d7
08
fd
ee
e8
d8
d1
07
05
e3
04
ca
04
f8
ff
d2
a8
a4
e6
e6
cf
bc
b8
df
f3
eb
01
03
c6
e3
d0
d9
03
e3
04
e5
c7
e2
f8
c6
8a
cb
af
bc
06
e6
15
00
b4
ce
bd
c2
c8
c9
bd
dc
df
d5
cd
ea
11
db
ff
d3
14
e4
bc
c4
14
e1
d1
ed
d2
03
fa
f3
f0
06
fb
d1
ee
d0
d2
bd
f4
e5
e6
cc
d9
d4
fd
d6
d0
ef
c1
87
ce
b4
a5
ad
bf
ad
b5
af
f7
e4
da
86
d7
d8
02
dd
fc
da
16
e5
dd
e8
11
f2
09
db
f1
ec
d3
e7
17
01
bd
be
da
b8
b7
b1
af
b2
c1
cb
d1
f1
0c
f3
d1
c4
dd
fd
f5
e6
fc
e8
07
e9
03
02
d0
fc
d9
e0
dc
de
08
0b
ef
fa
17
13
1f
05
e9
1f
f8
ea
d9
f9
ec
c1
d7
cf
e4
d2
d1
d4
dc
ac
d1
c9
a3
a3
f1
dd
15
da
cd
c3
ea
b4
b1
c1
d9
c2
f2
c0
dc
ed
d4
d1
bb
b7
03
fe
e5
01
e5
f6
05
00
f4
fe
bd
ac
fb
f7
05
0d
ec
f3
fe
0f
fd
01
d9
e0
e4
14
f9
f3
09
e7
d9
d6
0f
ef
e8
09
f5
d1
f8
0d
e1
f9
fa
10
e4
eb
df
e2
f4
12
05
f7
e3
dd
de
12
1b
f8
0c
fb
d3
04
d9
e0
fd
0c
fd
ff
e4
09
04
09
11
e5
c6
f1
09
f8
f0
eb
db
fe
f1
06
05
ea
f1
d4
00
c4
ca
d2
ef
d1
f7
fb
fa
d2
f8
f5
f7
e9
0e
f5
f5
ed
ef
e5
e3
22
18
03
da
e6
fe
f2
a9
b7
d8
a9
c4
d0
d0
c6
cb
fb
f5
db
ec
ed
fc
c8
e0
c2
d4
c2
b9
d5
b3
cd
fc
fc
f8
e9
0f
f5
0e
f0
0d
03
d3
02
f7
e3
f5
10
07
32
e0
27
ec
56
36
2c
e6
35
db
37
fc
48
2c
ed
eb
06
0f
ff
ef
a4
22
0d
13
ea
07
1e
29
ab
1c
ed
38
27
0b
01
37
11
04
dc
2e
e8
c7
0d
17
1f
16
f8
ce
0c
07
c9
13
25
f0
04
f7
29
55
bc
0c
32
49
09
fd
27
e2
f8
2a
4c
2b
05
16
4c
03
5a
fc
26
02
51
03
fc
c0
d6
02
59
6f
e1
de
d3
2e
3a
fd
f2
37
cc
f2
bf
0c
07
f1
f8
d2
09
ea
c0
d5
aa
69
1e
14
20
08
29
06
f8
21
5b
56
37
44
2c
52
46
09
3b
65
e0
b1
ff
da
f9
e9
d5
b8
29
01
14
da
07
1c
20
18
01
0b
dc
e1
dc
57
c9
e5
37
eb
11
3a
6e
dd
e3
f9
25
f9
06
01
e6
22
04
04
31
31
df
aa
d0
1a
e7
e9
ee
e8
0c
0f
1e
1a
24
f4
f0
fe
e4
ec
c1
ed
ee
fc
ec
06
25
38
d4
26
2b
17
dd
c7
ec
03
94
f6
08
13
cd
37
eb
be
17
23
53
5c
35
08
f2
26
f4
ca
ec
47
c9
17
17
17
11
f6
06
7f
41
f7
1d
39
0f
12
11
16
17
35
f9
eb
0d
55
62
db
0f
1a
3a
09
eb
e1
30
32
1a
e0
cc
cc
fb
d9
cf
b8
09
4c
35
3f
25
db
f1
0f
fe
0f
14
1c
fc
0d
cb
fa
cf
d5
a5
e2
c1
db
ec
23
fb
1d
e3
10
0f
16
13
65
2b
1a
f0
4e
0b
42
0e
bf
de
09
cf
d6
09
f9
f6
f7
1e
21
0d
0e
25
19
04
65
46
cd
1f
28
fc
f0
1c
39
30
d8
f7
35
e5
e5
4a
c1
af
f4
ed
10
04
12
0d
15
e2
0f
59
2d
e8
10
12
ee
b2
e6
00
fb
e5
1a
36
19
fe
18
00
f3
06
b6
c3
fb
f1
07
23
2c
3d
2c
53
0e
ee
d6
ef
db
eb
df
06
1f
04
fc
d6
06
e2
f9
12
45
01
f9
ff
48
fb
fc
e9
20
11
13
1b
07
06
1d
0d
04
00
3e
fc
a5
c6
0b
0c
de
cc
dc
24
09
03
cd
6c
0e
e6
4a
0a
04
0b
1b
e2
ab
ee
cb
f9
33
08
45
11
25
05
4b
1b
f9
d0
e7
3e
44
07
bf
f9
ef
be
0c
15
1e
c7
32
18
3c
d3
0e
17
07
ff
11
09
fb
fb
ae
be
e3
b6
d0
b4
b3
c5
ea
e5
df
f4
1c
16
ff
db
5d
53
3c
d4
21
42
07
bb
ef
0d
1d
eb
f4
c7
b8
f5
f1
b6
0c
f6
ee
d0
ff
5b
d3
0f
28
0d
eb
f2
0b
fd
f8
ca
ba
ef
f0
cf
b7
11
ed
d4
cc
ee
fa
f2
00
d4
00
16
0c
0c
02
d9
20
e8
0b
24
03
dd
06
21
57
2d
fb
fa
1f
16
fb
06
10
04
14
1c
2e
22
31
01
fa
e7
fe
fd
e2
e6
e5
12
df
07
f0
fc
d7
d0
0e
f6
f1
bf
50
3c
ee
e5
3a
52
3f
0b
14
f7
ff
ff
db
cc
00
ee
a0
af
eb
d6
ca
e0
f0
0a
d2
0b
09
20
ed
ad
be
fe
f6
d0
d8
d9
46
45
e0
de
31
0d
d6
08
d6
d7
e7
ec
d1
f3
79
25
d8
fd
33
30
e8
e7
db
fa
ea
d6
d3
fe
19
d1
ef
d6
17
39
6c
29
15
55
6d
24
f9
ef
fc
f0
17
44
0d
18
ee
ea
f7
f3
14
d5
e0
ed
0e
03
ff
2f
f3
ef
f5
0f
c1
ea
14
e9
ea
e1
dc
08
00
e4
d5
f1
d1
a1
98
ab
00
22
f0
01
1a
7f
54
2d
11
f4
ef
14
fb
d8
e4
f4
d6
e5
b1
fd
f1
e3
d8
f2
00
c6
d3
c3
07
db
dc
ec
e0
18
09
fb
e7
f8
1a
0c
ec
ee
05
04
1f
17
39
1d
35
62
38
07
3d
15
20
10
fc
fb
19
20
fa
d3
f3
13
de
b2
09
cc
fd
c6
00
0e
00
f1
ec
d7
0c
fb
14
ea
ff
47
31
12
28
03
f8
0b
fd
f9
ee
f1
3a
0d
c2
dd
31
16
c2
d2
02
0e
f2
01
0e
2e
03
e4
1f
6c
49
1d
f3
0d
13
dc
d1
d2
29
ee
de
f6
0a
03
e9
fd
fe
15
f5
e6
f7
f6
f6
f1
fd
03
e6
f3
e4
d2
ff
ed
f3
38
e7
e5
35
20
f0
e1
06
0c
02
f2
fa
ee
0f
f4
f9
0b
f2
f1
22
e6
d6
de
ec
0b
11
20
20
0e
fc
28
39
1d
d5
0a
dd
f0
f5
bd
b9
ef
f2
cf
eb
0d
0d
f2
d2
04
e2
d4
e8
06
e6
ef
fa
1d
09
01
19
fd
f1
df
f0
f8
e8
d3
f4
fb
03
e1
eb
d9
f9
f5
16
0d
0e
22
45
1f
21
53
3e
0d
00
fb
14
18
f9
16
0b
00
f7
33
30
06
ff
12
35
fb
05
f3
f6
f0
f1
b6
e4
f2
bd
00
f8
fc
f1
00
11
02
49
d6
ce
f7
e4
ea
ff
ff
ef
e0
d4
2b
dd
fb
df
ea
e2
f3
16
f8
06
ef
ff
02
f3
07
14
f4
e8
8f
cb
15
18
f9
0b
03
25
f8
e9
fb
14
da
0f
d9
f5
d9
ed
01
06
e7
b8
ee
db
1e
0c
05
cc
e4
d7
d0
1b
d4
e5
dd
0b
f4
f6
f4
04
00
2f
1f
3b
11
f6
2a
50
d8
0d
dd
b8
de
f1
2f
f5
20
41
21
fd
ee
32
15
fe
13
dd
15
e1
53
16
d3
f8
1e
50
28
0e
14
ed
fd
ca
c6
e3
ee
ef
ed
ec
ea
a7
1e
f1
f5
f8
da
ec
0a
1d
0c
4d
1a
0d
17
03
2c
fa
f0
01
33
00
b6
dd
34
21
19
ab
46
0f
e0
f4
1e
f9
d8
02
dd
da
df
9b
fe
25
de
dd
04
ef
fa
d9
1a
f1
0b
f7
21
a8
ef
07
07
f5
d0
d1
da
b5
fe
d6
f9
de
c8
4b
12
39
37
e3
e6
22
0f
ee
ee
28
36
fb
c8
e5
f4
df
17
34
00
fe
34
14
2a
3f
ee
d9
28
2a
d7
2c
4d
eb
09
3a
2d
09
3e
e2
d6
18
40
db
dc
18
2e
e8
04
03
d6
e7
2d
e4
d9
cd
34
f3
a6
4b
ec
0a
fe
f2
f2
e3
18
20
d2
c3
13
20
c6
28
39
e0
d8
c9
f9
e8
08
0d
e6
f8
07
08
be
0f
de
d2
a5
f6
e3
0b
28
4b
ff
00
71
f3
1d
4d
31
ee
06
2b
33
f0
d4
dd
d6
f0
07
09
1c
81
ad
ec
0e
ea
c1
08
0e
af
df
14
f8
ee
02
cf
c8
10
d3
b3
1e
ee
c3
e1
29
f0
e5
e7
e5
fb
e9
e7
03
f8
2f
2c
3f
fb
38
22
0f
12
ec
34
05
10
25
2c
0b
ed
bc
cf
0c
d6
c2
ba
f8
e0
05
fd
09
3a
4e
0b
f3
3e
48
44
24
f2
52
44
1c
11
75
57
fa
09
11
07
01
f9
2f
11
38
1c
52
42
29
32
31
47
1c
d8
01
04
ec
23
1c
e2
27
e6
0d
bd
24
e7
0b
4d
63
00
f6
15
ff
cd
ec
0a
d8
0b
2b
33
eb
2e
bd
db
14
dc
0d
2f
18
2e
3d
3a
dd
fd
12
17
fc
0f
14
f1
37
06
0a
59
17
e0
42
32
23
e3
11
38
f5
ea
15
0d
fe
f8
2a
