// conv_layers.0  shape=[32, 1, 3, 3]  bits=4
// scale per output channel: [0.15550421178340912, 0.17716215550899506, 0.23647284507751465, 0.16757075488567352, 0.05106433480978012, 0.14552436769008636, 0.1958063542842865, 0.20239569246768951, 0.1927117258310318, 0.030820662155747414, 0.16950063407421112, 0.1716679185628891, 0.14684224128723145, 9.99999993922529e-09, 0.11980639398097992, 9.99999993922529e-09, 0.18076828122138977, 0.04305405542254448, 9.99999993922529e-09, 0.15092894434928894, 0.14080893993377686, 0.23450791835784912, 0.16271790862083435, 0.03826547786593437, 0.1259721964597702, 0.18691764771938324, 9.99999993922529e-09, 0.15745842456817627, 0.1942073553800583, 0.13996878266334534, 0.10564680397510529, 0.05546988919377327]
03
05
ff
06
f9
fc
ff
fb
04
fa
06
ff
04
00
fc
02
f9
05
fd
06
fd
fc
07
fc
fe
04
fe
ff
07
fb
fc
fe
06
06
fa
00
fe
00
04
00
06
07
00
fe
ff
ff
00
02
06
07
01
fd
f9
fa
fe
fb
fd
05
07
05
fe
fc
fe
02
01
fc
fe
07
01
fc
fd
02
fd
01
03
01
f9
02
04
00
fd
ff
01
00
00
06
07
00
02
02
fb
fc
01
fd
07
04
02
01
fd
05
f9
01
fa
03
04
00
05
fa
fe
fc
06
07
fa
fe
fe
07
fc
00
00
00
00
00
00
00
00
00
fc
f9
fa
03
01
fe
04
06
05
00
00
00
00
00
00
00
00
00
03
f9
03
03
05
f9
fa
04
02
01
05
fe
02
fe
fb
fa
f9
fa
00
00
00
00
00
00
00
00
00
02
01
02
fc
f9
03
00
fe
03
fc
01
05
f9
01
06
fa
ff
05
02
fb
02
05
f9
04
03
fb
02
03
02
fc
02
f9
03
fc
02
03
ff
02
03
fb
fd
01
f9
fd
00
04
07
05
fb
fd
01
fe
fb
fe
fc
02
02
00
07
fc
02
ff
fd
00
00
00
00
00
00
00
00
00
04
fc
fe
fc
f9
06
ff
05
03
01
04
03
fb
f9
fb
03
04
02
04
ff
fb
07
00
f9
06
01
fb
02
fb
01
04
f9
fd
05
02
01
f9
fc
03
03
fb
fd
04
03
fb

// conv_layers.1  shape=[64, 32, 3, 3]  bits=4
// scale per output channel: [0.03305726870894432, 0.032827362418174744, 0.04008045420050621, 0.04209921881556511, 0.04170091822743416, 0.0470019094645977, 0.03112003579735756, 0.03229144960641861, 0.0343722403049469, 0.03180232644081116, 0.0258910171687603, 0.03320198878645897, 0.04142382740974426, 0.04323003441095352, 0.041632361710071564, 0.02945752628147602, 0.04605612903833389, 0.03500514477491379, 0.040513209998607635, 0.0380636528134346, 0.033848248422145844, 0.03644847869873047, 0.023267896845936775, 0.02960941381752491, 0.04545808583498001, 0.03454737737774849, 0.0367167666554451, 0.04494241252541542, 0.04464433342218399, 0.03273540362715721, 0.03857668116688728, 0.032879866659641266, 0.04223513975739479, 0.03994029015302658, 0.04856111481785774, 0.060805920511484146, 0.04308492690324783, 0.02974085323512554, 0.040574949234724045, 0.03469015657901764, 0.04597936198115349, 0.03638564422726631, 0.02746346779167652, 0.02870126999914646, 0.04914792254567146, 0.04283105209469795, 0.038333166390657425, 0.05569947138428688, 0.04793720319867134, 0.052777260541915894, 0.03880217671394348, 0.051112834364175797, 0.05843069776892662, 0.04339909180998802, 0.05023575946688652, 0.03798947483301163, 0.035629402846097946, 0.04142270237207413, 0.04700469225645065, 0.051487743854522705, 0.04395171254873276, 0.03889703378081322, 0.04138566926121712, 0.03853360936045647]
fd
ff
fc
fd
fe
fb
fd
ff
fd
fd
fd
fe
fc
fb
fc
ff
fb
fd
ff
02
00
fd
00
fe
ff
03
00
fd
ff
00
fb
fc
fd
ff
fc
fb
03
04
02
fe
01
02
fe
01
02
00
01
01
01
03
01
00
00
00
ff
01
01
00
02
01
02
01
02
00
01
03
fe
ff
00
ff
ff
00
ff
02
02
fd
fe
01
01
00
fc
ff
ff
fd
ff
00
fe
01
03
01
fd
fe
ff
fe
00
fe
ff
00
00
fe
fd
ff
fb
fb
fc
ff
fd
fd
ff
00
ff
fb
fd
ff
ff
fe
fc
00
00
00
00
00
00
00
00
00
02
05
03
00
04
07
01
02
01
00
00
00
00
00
00
00
00
00
fe
fe
ff
fc
fb
fd
ff
fd
fd
01
00
01
ff
fe
fe
03
03
02
00
00
00
00
00
00
00
00
00
02
01
01
02
00
03
03
02
02
00
04
02
fd
00
fe
fc
03
fe
01
ff
00
ff
fe
fd
01
02
ff
fe
ff
fe
fd
fd
fd
fd
ff
00
01
02
01
00
01
ff
01
02
00
03
06
03
02
04
05
ff
00
fd
fe
fe
fd
fd
ff
fd
fe
fe
fe
00
00
00
00
00
00
00
00
00
fd
fc
fd
fe
fe
fd
ff
01
01
ff
02
00
ff
ff
02
02
01
00
fe
05
01
fc
01
ff
fc
04
fc
fe
01
03
fe
ff
02
02
03
02
05
05
04
01
01
02
02
01
ff
fd
fe
02
fd
fa
00
01
fd
fd
fe
02
02
fe
fd
ff
00
fc
ff
fd
00
03
00
fc
02
01
fd
fe
02
02
02
00
ff
ff
ff
fe
ff
01
05
02
fe
03
03
fc
fb
ff
fb
fd
00
fc
fd
02
00
01
01
ff
01
02
fc
fc
00
fd
fc
fd
02
02
01
ff
00
03
ff
00
00
01
02
01
01
00
02
00
00
01
00
00
02
ff
fe
00
00
fe
00
fd
00
02
fb
f9
fc
00
fb
fa
02
01
01
fe
fd
00
00
fd
fd
ff
00
01
00
00
ff
ff
ff
00
00
00
00
00
00
00
00
00
00
fe
ff
01
00
ff
fd
01
00
00
00
00
00
00
00
00
00
00
00
01
01
03
ff
fd
00
ff
ff
fe
fc
fe
00
ff
ff
03
01
ff
03
00
00
00
00
00
00
00
00
00
fc
fe
00
01
fa
fa
02
00
fe
03
05
04
02
02
05
01
00
00
ff
ff
02
ff
fe
01
00
ff
fd
ff
00
02
fe
fd
00
ff
fe
ff
ff
02
05
ff
fe
00
fe
fd
fc
04
05
00
00
03
03
02
02
03
fd
fe
02
fe
fd
00
00
fe
ff
00
00
00
00
00
00
00
00
00
fe
00
03
fd
fb
00
00
fd
fe
ff
01
02
ff
ff
02
00
fd
fe
fc
fe
02
01
fe
fe
03
01
ff
02
00
ff
01
03
01
00
04
ff
fd
fe
fc
00
01
01
02
00
01
00
00
fe
00
01
ff
01
02
02
01
03
ff
fe
ff
ff
ff
ff
00
06
07
04
fe
fc
fc
fe
fa
ff
02
03
00
00
fe
fd
01
fe
ff
03
01
ff
00
ff
fe
fe
fd
fd
fe
ff
02
00
01
00
00
03
01
ff
fe
01
00
00
00
ff
02
ff
02
02
01
ff
fd
fc
00
fd
ff
00
03
01
ff
fc
fc
01
ff
fe
ff
01
01
ff
ff
00
00
01
00
00
01
01
00
02
01
01
00
01
01
03
00
fe
ff
fe
00
00
00
02
02
02
ff
fe
fd
00
ff
00
00
00
00
00
00
00
00
00
00
fd
fd
01
ff
fe
ff
01
00
ff
00
00
00
00
00
00
00
00
00
03
04
00
ff
fd
fd
ff
fe
ff
00
ff
fe
01
01
01
01
00
00
00
00
00
00
00
00
00
00
00
fe
fe
ff
fd
fb
fd
fc
fe
00
02
06
03
fd
fa
fc
ff
fc
00
05
07
03
00
ff
fc
00
fb
fe
01
02
ff
fd
fe
fe
00
00
01
01
02
01
00
ff
fe
01
01
ff
fd
fc
ff
00
02
02
01
01
00
01
02
01
fd
ff
00
fe
00
00
00
00
00
00
00
00
00
00
00
02
02
00
fe
fe
ff
ff
00
03
ff
fd
fe
02
06
03
01
02
01
03
06
02
fd
fb
fc
ff
ff
00
fd
fd
00
00
ff
fe
ff
fd
fd
ff
ff
00
fe
fd
fd
01
ff
ff
01
00
fe
fe
00
fe
00
03
01
00
ff
fe
ff
fe
ff
02
02
02
ff
ff
02
00
01
02
00
00
01
00
fe
01
00
fd
ff
02
01
01
00
fe
03
00
fe
03
ff
fe
01
fe
fd
fc
02
ff
00
00
00
ff
01
00
01
00
ff
ff
ff
00
ff
01
fd
ff
02
ff
fe
01
00
00
01
ff
00
00
fe
00
00
00
01
01
ff
01
01
ff
01
00
ff
00
00
fd
01
fe
fc
01
00
ff
01
01
ff
ff
ff
fd
00
02
01
02
01
00
ff
ff
ff
fe
01
01
ff
00
00
00
00
00
00
00
00
00
02
01
ff
fe
fb
fb
00
00
ff
00
00
00
00
00
00
00
00
00
01
ff
ff
00
ff
fc
02
01
01
01
01
01
ff
00
01
fe
ff
00
00
00
00
00
00
00
00
00
00
01
01
fd
01
00
fa
ff
fc
fb
00
fd
07
ff
ff
07
ff
fd
02
ff
00
02
ff
00
02
fd
01
00
00
ff
ff
fe
00
ff
00
02
02
01
00
01
ff
00
00
ff
ff
ff
00
fe
00
01
fc
ff
02
fe
02
00
ff
fd
ff
ff
ff
01
00
01
00
00
00
00
00
00
00
00
00
ff
ff
01
fe
fe
02
ff
00
01
01
ff
00
ff
fe
fe
02
03
03
02
03
00
ff
05
01
00
00
ff
02
fc
fe
01
fa
fe
02
fe
01
ff
00
00
01
00
01
01
00
01
03
00
fd
00
fe
fc
00
fe
fe
02
ff
00
ff
fd
fe
fe
fe
01
fe
fc
00
fc
fd
ff
fd
ff
01
ff
00
00
fe
00
02
00
02
02
fe
ff
00
fc
fe
00
ff
00
01
03
00
ff
03
00
fe
fd
fe
ff
01
01
01
00
02
ff
00
02
ff
fe
00
01
fe
02
02
01
02
02
fe
00
01
fe
01
02
00
01
02
01
ff
00
01
ff
ff
01
ff
ff
00
fe
fd
00
fe
fc
fe
fe
fe
00
01
fe
00
fd
fe
fe
00
00
00
01
00
ff
00
01
02
02
02
00
00
00
00
00
00
00
00
00
02
02
02
01
02
03
00
00
00
00
00
00
00
00
00
00
00
00
ff
00
01
fe
01
02
01
02
02
fe
ff
02
ff
fe
00
01
00
00
00
00
00
00
00
00
00
00
00
fe
fe
02
fe
ff
01
00
00
00
fb
f9
fb
f9
fc
00
fc
ff
04
fc
fc
00
fd
fc
ff
ff
00
02
00
00
ff
ff
fe
fe
ff
00
ff
00
fe
ff
00
ff
ff
01
00
ff
01
00
01
01
03
02
00
02
00
00
fe
fe
00
fd
fd
fe
fe
ff
00
00
00
00
00
00
00
00
00
00
ff
fe
fe
fc
fd
fd
fe
01
02
01
02
01
02
00
ff
00
ff
fe
fd
ff
fe
fe
02
00
02
02
fe
fe
fc
01
01
fe
ff
ff
ff
fe
01
04
fd
ff
03
00
ff
01
01
fe
fe
00
00
01
ff
00
02
01
fe
fe
00
00
01
01
01
01
02
02
01
01
03
01
fe
ff
fe
00
fe
fe
02
00
ff
01
02
00
ff
00
00
00
01
00
00
ff
00
fe
f9
fd
00
01
02
ff
03
02
ff
fd
fe
fd
ff
fe
fe
01
00
00
fe
fe
02
00
01
ff
02
01
ff
fe
01
02
ff
00
03
01
00
ff
ff
00
00
00
00
00
00
00
ff
fe
00
fd
fe
ff
ff
00
01
01
ff
ff
01
00
00
00
00
01
ff
ff
00
01
ff
00
00
01
00
00
00
00
00
00
00
00
00
00
fc
f9
fb
fd
fd
fd
fe
00
fe
00
00
00
00
00
00
00
00
00
01
ff
ff
01
ff
ff
00
01
01
fe
fd
fe
01
02
01
02
03
02
00
00
00
00
00
00
00
00
00
01
00
00
01
00
fe
fc
fe
fe
00
02
03
02
02
01
ff
01
00
00
03
02
00
02
02
ff
ff
ff
00
fe
fe
01
ff
01
00
01
03
01
00
00
ff
ff
00
00
00
00
fe
fa
fc
00
fe
ff
02
04
03
01
ff
ff
01
01
01
00
01
01
00
00
00
00
00
00
00
00
00
00
fd
fe
00
ff
00
ff
00
01
fe
fc
fd
fe
fd
fe
00
01
00
03
02
01
01
02
01
01
ff
ff
fe
ff
ff
fe
00
00
fe
fe
fd
fe
fd
fd
00
ff
ff
02
02
03
fe
ff
02
ff
01
02
00
04
00
01
fe
ff
fe
ff
fe
00
01
fe
fc
fe
ff
fc
fc
fc
00
ff
fe
fc
fe
ff
fc
fd
fd
fe
fe
ff
01
05
04
ff
00
00
02
ff
fe
00
00
01
00
04
03
02
02
01
fe
fd
00
01
fe
fe
01
fd
fd
fc
fc
01
fd
fb
fd
01
ff
00
fd
ff
ff
fe
00
fe
00
ff
02
04
07
05
06
06
03
05
02
ff
03
02
00
04
03
fe
02
ff
fd
00
01
ff
01
ff
fd
01
ff
fd
fc
fd
ff
fc
fe
fd
00
ff
00
00
00
00
00
00
00
00
00
00
00
fe
03
04
00
fe
04
01
00
00
00
00
00
00
00
00
00
00
fe
fa
00
fa
fb
fd
fe
fe
01
fd
fd
fe
ff
fe
fd
fe
fd
00
00
00
00
00
00
00
00
00
00
fc
01
00
fe
02
01
06
02
01
01
05
00
fe
00
00
04
00
00
fe
fc
fd
fd
fc
fd
ff
ff
ff
01
00
01
01
01
ff
00
02
ff
fe
01
04
01
02
01
05
02
ff
ff
02
02
ff
01
02
01
fe
fe
fe
00
00
ff
04
01
01
03
00
00
00
00
00
00
00
00
00
00
01
03
01
04
01
fc
ff
ff
fe
00
fe
fd
ff
fb
fa
fe
fd
fe
fb
ff
03
ff
00
ff
05
04
03
ff
00
04
02
04
00
02
01
ff
ff
ff
ff
fb
fc
fe
fe
fe
fe
02
01
fc
05
fe
f9
01
fd
fd
01
ff
ff
00
fc
fe
ff
fd
ff
ff
03
00
fc
fd
fc
fc
fc
fc
fd
ff
00
fd
00
00
ff
ff
02
00
fd
fa
00
00
fb
00
00
fd
02
00
fc
04
fe
fe
01
ff
02
01
fe
01
01
00
02
ff
fe
02
fb
04
03
fd
02
02
01
ff
02
ff
01
00
fd
01
01
ff
00
01
ff
ff
01
ff
fe
00
01
01
03
ff
02
02
ff
00
01
fe
ff
00
01
fe
00
fd
fd
00
ff
fe
00
00
00
ff
ff
ff
fe
00
01
01
00
00
00
00
00
00
00
00
00
00
fe
fe
03
02
01
01
01
02
00
00
00
00
00
00
00
00
00
00
02
00
fe
fe
00
01
ff
00
03
02
fd
02
01
fd
01
00
ff
00
00
00
00
00
00
00
00
00
fe
01
02
01
fa
fe
02
fb
00
fd
07
04
fe
04
02
00
01
02
00
03
fe
fc
fc
fa
fc
fb
fa
ff
01
00
01
fe
fe
00
fe
ff
ff
ff
fc
fe
fd
fd
00
ff
ff
fc
02
00
fd
02
03
ff
00
04
05
ff
fc
00
fc
fc
ff
fd
00
00
00
00
00
00
00
00
00
00
ff
00
01
fd
fe
ff
fe
fe
03
ff
ff
ff
00
00
04
ff
fe
02
06
07
ff
02
03
fd
01
ff
fe
ff
fd
01
fd
fc
00
00
00
03
02
01
fe
00
05
02
00
00
ff
ff
fd
01
fe
f9
fd
00
fd
fb
01
fd
00
01
fc
fb
01
00
fd
fc
fc
01
ff
fb
fd
01
02
fe
01
fc
00
05
00
fd
01
03
fe
01
00
00
02
ff
fe
01
01
fe
ff
00
01
ff
fd
ff
ff
fe
ff
ff
01
00
01
ff
02
ff
00
ff
02
fe
00
06
00
fd
00
05
01
02
fd
fe
06
02
fd
ff
04
02
ff
00
01
00
ff
00
ff
ff
00
ff
fe
00
fe
fa
fe
fe
fc
fc
ff
fc
01
01
fb
fc
02
00
fd
00
fc
ff
06
00
fb
00
04
00
00
00
00
00
00
00
00
00
00
02
02
01
05
02
00
02
05
05
00
00
00
00
00
00
00
00
00
02
fc
00
05
ff
fb
ff
06
03
ff
ff
fe
01
00
ff
ff
ff
00
00
00
00
00
00
00
00
00
00
fe
02
01
00
00
01
00
ff
00
00
fc
fe
03
fe
fb
02
05
ff
fe
fe
02
ff
fc
fc
02
03
fd
ff
ff
00
ff
fe
fe
ff
00
00
00
00
ff
00
02
00
fe
00
02
04
03
01
04
00
02
03
03
01
fd
ff
00
fc
fb
fe
ff
fe
fe
00
00
00
00
00
00
00
00
00
fe
fe
02
fd
fb
fd
00
fd
fe
01
01
01
01
ff
ff
ff
fe
01
00
fd
ff
02
ff
fb
04
06
00
00
00
00
ff
fe
00
fe
fc
fd
03
ff
00
03
00
fe
02
02
03
02
ff
ff
fd
ff
fa
00
fc
f9
00
fd
00
ff
02
00
00
ff
fd
fe
fc
01
00
01
ff
00
ff
00
ff
01
00
02
03
01
01
03
ff
00
ff
ff
01
ff
fd
fe
fb
fb
fd
ff
02
fc
ff
fc
01
fe
fc
fc
ff
04
fb
00
03
ff
02
03
00
fe
01
00
02
01
03
02
02
00
00
01
00
01
01
00
01
ff
ff
ff
ff
01
00
00
02
01
02
fb
00
03
ff
06
01
02
03
00
fd
00
00
01
03
ff
ff
ff
fc
00
fe
01
00
02
01
03
00
00
00
00
00
00
00
00
00
00
00
fd
00
03
00
02
04
ff
fe
03
00
00
00
00
00
00
00
00
00
00
01
01
01
04
02
01
00
00
ff
ff
fd
03
02
00
01
ff
fe
00
00
00
00
00
00
00
00
00
fe
fe
ff
fc
fd
03
fd
ff
02
ff
00
01
02
05
fe
05
06
00
fe
fe
ff
00
03
ff
02
01
00
00
04
ff
03
01
fd
01
00
fd
ff
00
00
ff
ff
ff
ff
ff
00
01
fd
00
fb
fb
fe
fb
fb
fd
fc
fd
01
00
00
fd
01
00
fc
00
00
00
00
00
00
00
00
00
fc
04
01
02
05
ff
03
01
01
fd
01
06
fc
01
04
fe
00
03
02
ff
00
01
01
fe
04
ff
fb
fd
fc
fe
fc
fe
fd
ff
fe
fe
01
ff
fe
03
00
01
01
fe
fe
07
04
03
05
01
00
00
00
01
00
03
01
01
00
01
00
01
00
01
01
fe
04
01
00
04
ff
01
00
01
02
ff
00
01
fe
00
00
00
ff
fc
03
01
ff
ff
ff
ff
03
05
02
03
01
01
00
00
01
01
00
fc
fe
ff
ff
fe
fd
ff
fe
01
00
04
01
00
02
ff
ff
ff
00
01
ff
00
00
00
02
ff
03
02
00
00
fe
fe
fd
fc
fc
fd
fe
fb
fc
f9
fb
fe
fb
fc
ff
ff
01
00
00
00
ff
ff
ff
01
02
03
00
00
02
fe
02
ff
00
00
00
00
00
00
00
00
00
fd
00
fb
fa
fb
fc
fd
fc
fa
00
00
00
00
00
00
00
00
00
00
00
02
02
01
01
01
fe
fe
01
ff
fc
00
ff
fd
00
00
00
00
00
00
00
00
00
00
00
00
fd
fc
fa
00
fc
fd
fe
00
00
fb
fa
fb
fe
fa
fc
00
fc
fc
ff
fe
fe
01
01
00
02
03
01
01
01
01
03
01
fe
00
fe
fd
04
02
00
ff
ff
ff
fc
fd
fd
02
04
04
05
02
ff
01
00
ff
03
05
02
01
ff
01
01
ff
00
00
00
00
00
00
00
00
00
00
fa
fb
fd
fe
fd
fd
00
fe
fa
fc
00
03
ff
ff
00
fc
fe
fe
01
02
00
01
01
01
02
00
01
fe
00
02
fd
ff
ff
01
00
fe
fc
fc
fc
ff
00
ff
01
02
00
ff
fe
ff
fc
03
fa
01
fe
01
ff
01
fb
ff
00
01
01
ff
02
fe
04
ff
02
fe
02
fe
00
fd
fd
00
ff
ff
03
01
00
fe
00
00
00
01
ff
ff
02
00
ff
00
fd
01
fb
02
fe
fc
02
fc
02
00
ff
ff
ff
fe
01
ff
00
00
fd
ff
01
ff
05
00
01
00
00
fd
01
fe
02
01
02
02
ff
00
00
fe
fe
ff
fe
ff
fe
ff
fe
03
fd
ff
03
fa
02
fb
02
fb
01
fc
02
01
fe
01
fa
05
fa
fe
00
ff
01
02
02
00
00
ff
00
00
00
00
00
00
00
00
00
02
fe
01
00
00
02
01
02
00
00
00
00
00
00
00
00
00
00
fe
fe
02
fe
03
00
01
01
fe
fe
ff
fe
ff
01
fe
ff
fd
fd
00
00
00
00
00
00
00
00
00
01
ff
ff
fe
00
ff
ff
fa
00
02
fb
00
fd
ff
02
fa
05
fd
02
fe
00
ff
02
fe
00
00
01
00
fd
01
fb
05
fd
00
00
01
ff
00
00
fe
00
00
ff
00
01
00
02
00
02
03
ff
01
00
00
fe
02
fb
01
fd
02
00
fd
00
00
00
00
00
00
00
00
00
00
04
f9
01
fe
01
ff
fa
04
fd
fe
ff
00
00
02
00
01
00
01
fc
05
00
01
02
00
03
fc
02
00
fc
00
fe
ff
ff
fe
ff
ff
fe
00
fe
00
00
03
00
01
01
ff
00
fe
fe
02
00
ff
02
00
01
ff
00
00
02
00
ff
ff
fe
02
00
02
02
01
01
01
ff
00
00
00
00
ff
00
00
ff
00
00
00
ff
ff
ff
ff
ff
00
00
ff
ff
ff
00
ff
00
ff
fd
fe
fd
ff
00
ff
01
02
00
01
00
00
00
00
00
ff
00
fe
ff
ff
ff
ff
00
01
ff
01
01
00
01
ff
fe
ff
fe
ff
00
ff
00
01
00
ff
ff
ff
ff
ff
ff
ff
fe
fd
00
00
00
00
00
ff
ff
ff
ff
ff
00
ff
ff
00
00
ff
01
fe
00
00
00
00
00
00
00
00
00
fe
ff
fe
00
01
00
00
00
01
00
00
00
00
00
00
00
00
00
00
ff
00
00
00
00
fe
ff
ff
ff
01
00
05
06
07
03
06
06
00
00
00
00
00
00
00
00
00
00
00
02
02
04
03
01
02
03
00
01
00
00
00
fe
00
00
00
ff
01
02
ff
03
02
ff
02
02
00
01
00
00
00
00
fe
01
00
ff
ff
ff
ff
00
00
ff
ff
00
fe
fd
fe
01
02
01
01
01
00
01
ff
01
ff
ff
ff
00
ff
fe
00
00
00
00
00
00
00
00
00
00
00
01
01
02
00
00
01
02
ff
fe
fe
02
04
03
02
03
02
01
00
00
fe
01
00
fe
01
fe
00
02
ff
ff
03
00
01
03
02
ff
01
ff
02
04
04
02
03
02
01
01
01
00
fe
00
00
fe
fe
00
00
01
ff
fe
fe
ff
00
00
01
03
01
02
05
02
fd
00
fe
00
01
02
ff
fc
ff
00
ff
00
fe
fe
00
fe
fe
ff
ff
00
02
fe
ff
00
fc
fb
fc
01
03
03
00
02
02
f9
fb
fc
03
03
04
00
02
02
fc
fe
fe
02
00
00
00
01
01
00
fe
00
00
fe
01
ff
00
00
fe
fe
ff
00
00
01
00
00
01
fd
fd
fd
01
00
01
00
01
00
fe
fc
fd
01
ff
01
01
01
01
ff
fe
ff
00
ff
00
00
00
00
00
00
00
00
00
00
fe
fe
01
fc
fb
fe
02
02
02
00
00
00
00
00
00
00
00
00
01
01
02
fe
fc
fe
02
ff
ff
ff
ff
00
fe
fe
ff
02
02
03
00
00
00
00
00
00
00
00
00
00
ff
00
02
01
03
ff
01
01
03
01
01
03
02
01
ff
fe
fe
00
02
ff
00
05
01
ff
fe
fe
02
00
00
ff
fd
ff
00
ff
00
ff
fe
ff
00
ff
ff
03
01
01
01
ff
01
fd
fd
fe
00
fe
00
02
01
01
ff
ff
fe
ff
00
ff
00
00
00
00
00
00
00
00
00
01
ff
00
01
fd
ff
00
fe
00
ff
00
01
fe
fe
ff
ff
01
01
04
00
02
02
00
02
ff
fc
fd
fe
ff
ff
02
02
01
ff
ff
00
ff
ff
01
fd
fc
fe
ff
fe
ff
04
05
06
ff
02
ff
fb
fa
f9
03
05
02
fe
00
fe
ff
fd
fc
fe
ff
01
01
00
00
01
01
00
fd
fd
fd
ff
ff
00
02
02
02
ff
00
00
fe
00
01
ff
01
00
05
02
02
fe
00
01
fe
fe
fe
ff
ff
ff
ff
00
ff
00
00
00
fc
f9
fa
01
01
02
04
05
04
fd
fb
fc
ff
ff
ff
05
04
03
00
00
00
00
01
00
00
00
00
04
03
04
ff
01
01
fb
fa
fc
02
05
02
ff
00
fe
fe
fc
fc
fe
fc
fb
00
ff
ff
03
04
04
00
00
00
00
00
00
00
00
00
ff
fe
fb
fe
ff
00
01
04
04
00
00
00
00
00
00
00
00
00
fa
fa
fd
01
ff
00
03
03
02
00
01
02
ff
ff
01
00
ff
ff
00
00
00
00
00
00
00
00
00
ff
00
01
ff
00
01
ff
ff
01
ff
00
00
03
02
ff
02
01
01
fe
00
01
01
01
fe
02
01
00
04
04
03
ff
00
00
fd
fc
fd
fe
ff
00
ff
ff
00
00
01
01
fe
fc
fc
ff
ff
00
02
04
04
04
06
03
ff
ff
fe
fb
fa
fd
00
00
00
00
00
00
00
00
00
06
04
04
ff
01
00
fb
f9
fb
00
fe
ff
ff
00
00
ff
ff
00
fe
00
01
03
02
00
02
02
01
fd
fd
fd
ff
01
03
01
ff
fe
00
ff
00
ff
fe
01
00
01
01
02
06
05
02
04
06
07
01
04
02
06
03
04
04
02
04
ff
01
02
00
fb
fd
fc
fb
fe
fb
fc
00
ff
fd
01
00
ff
02
00
00
01
fe
ff
ff
fe
00
01
ff
01
01
ff
01
03
02
04
01
03
01
fb
fb
00
fb
fe
02
00
ff
00
ff
fb
fd
fd
fb
fb
fe
fe
fe
ff
fc
fc
00
fd
fc
ff
fc
fd
01
00
01
ff
00
00
ff
ff
00
02
04
05
01
04
04
04
01
05
ff
05
05
05
03
04
05
fe
02
01
fe
fe
01
fd
fe
fe
01
ff
00
00
00
00
00
00
00
00
00
ff
fc
fb
fc
fc
fe
fb
fe
ff
00
00
00
00
00
00
00
00
00
ff
ff
fe
00
01
fe
02
ff
fd
04
ff
fc
ff
fd
fe
fd
ff
00
00
00
00
00
00
00
00
00
00
00
fd
fc
fd
fa
fe
fc
fe
fc
03
00
fd
fd
fc
fc
02
fe
fc
00
02
ff
fe
fe
fb
fd
fa
fb
01
04
04
05
04
00
06
ff
02
ff
00
ff
ff
ff
fe
00
00
00
ff
fb
fd
fb
fb
fe
fd
fe
ff
02
06
05
05
04
01
04
00
02
00
00
00
00
00
00
00
00
00
01
06
04
04
03
03
04
03
03
fc
fb
ff
fb
ff
01
00
01
00
00
01
fc
ff
fb
fc
01
fd
fd
fe
fe
fc
00
ff
ff
01
ff
01
01
01
fc
00
fd
fc
fd
fb
fb
04
00
fa
07
01
fb
01
ff
ff
02
fe
fd
05
01
fd
00
ff
01
fe
fe
ff
fe
fd
fe
00
fe
00
fd
00
02
fc
ff
04
01
00
ff
ff
00
00
ff
ff
00
fe
ff
00
02
02
fe
01
ff
ff
00
ff
00
00
03
ff
fd
00
01
ff
00
00
fd
00
04
fb
fe
03
ff
02
00
fe
00
03
fb
ff
04
fe
01
01
00
00
00
01
00
01
01
00
01
02
01
fc
05
03
fb
03
ff
fe
00
00
fc
05
01
fd
01
01
01
fd
ff
03
fb
ff
04
ff
01
01
00
00
00
00
00
00
00
00
00
ff
03
01
fc
00
03
fe
ff
01
00
00
00
00
00
00
00
00
00
fe
00
01
fb
00
04
01
01
ff
02
00
ff
00
fe
00
00
00
00
00
00
00
00
00
00
00
00
00
fd
fe
ff
fb
ff
00
fc
00
00
fe
fe
00
00
fe
02
03
00
01
00
ff
fe
ff
fe
00
00
fe
01
03
ff
fd
06
00
fd
01
ff
ff
ff
00
01
fe
ff
00
ff
ff
00
ff
01
03
fc
01
04
ff
ff
01
02
ff
fe
04
00
fc
00
01
00
00
00
00
00
00
00
00
00
00
04
00
fa
07
ff
fb
02
ff
01
ff
02
01
fe
ff
00
01
ff
00
ff
fd
00
ff
fe
01
02
fe
01
00
00
fe
fe
01
ff
01
fd
fe
fd
01
02
fd
01
02
ff
ff
01
fe
04
04
fa
ff
00
fe
fe
01
fd
03
03
fc
fc
01
ff
fe
01
04
ff
fd
00
05
01
fd
02
01
00
00
03
00
fe
00
00
ff
03
03
ff
00
04
fe
fc
01
ff
fc
fc
fb
00
05
fe
fd
05
fd
fb
02
fd
fe
04
fc
fc
04
fc
fd
ff
fc
02
01
fe
00
00
02
03
ff
fe
03
ff
fe
01
fe
04
01
01
fe
fe
02
ff
fe
02
ff
00
fe
01
03
fd
fd
00
01
fe
fe
fd
00
03
fe
fe
00
01
fe
02
ff
00
03
fe
fd
01
ff
01
03
00
00
00
00
00
00
00
00
00
ff
fd
03
01
fa
00
07
ff
fd
00
00
00
00
00
00
00
00
00
fd
fd
02
01
ff
01
00
00
01
ff
ff
ff
04
01
ff
03
01
fc
00
00
00
00
00
00
00
00
00
03
fc
fc
04
fc
fc
00
00
fe
fc
00
fd
fb
03
03
f9
04
07
01
01
00
fe
05
03
fb
02
01
fd
01
01
fc
02
01
fe
00
02
02
00
00
02
00
00
ff
00
ff
02
ff
03
01
fa
fd
06
01
fd
00
ff
01
ff
ff
ff
ff
fd
ff
00
00
00
00
00
00
00
00
00
fc
00
01
fe
01
ff
ff
00
00
01
ff
01
04
fd
fd
06
00
fd
02
03
fe
fe
05
03
fa
fe
03
fe
fd
fb
00
fb
fa
ff
fe
ff
ff
fe
00
01
00
fd
02
03
fe
02
02
02
04
00
fd
01
00
ff
02
03
03
00
00
ff
ff
ff
ff
ff
ff
ff
fe
ff
fe
fd
fe
fe
05
04
01
ff
01
00
ff
00
ff
02
01
03
03
03
03
01
00
00
02
00
01
01
00
fe
00
01
02
00
fe
00
01
01
ff
ff
00
ff
02
02
01
ff
01
01
00
ff
ff
03
01
01
ff
01
00
00
00
01
01
02
02
01
01
01
01
01
00
ff
01
02
00
ff
fe
00
01
ff
02
03
04
00
00
00
ff
ff
fe
06
02
01
00
01
00
00
00
00
00
00
00
00
00
00
00
00
00
02
00
00
fe
00
00
00
02
01
00
00
00
00
00
00
00
00
00
07
02
02
00
00
00
01
00
ff
02
02
02
00
00
00
fe
fe
ff
00
00
00
00
00
00
00
00
00
fe
ff
00
ff
00
00
fe
fe
ff
fe
02
01
00
02
00
ff
ff
ff
00
00
00
ff
00
fe
fd
fd
fc
01
02
02
01
00
ff
01
01
00
03
02
02
01
01
02
01
01
01
00
00
01
fe
00
02
00
ff
02
02
02
02
01
01
fe
ff
00
00
00
00
00
00
00
00
00
00
00
00
01
02
00
00
fe
00
ff
00
00
ff
00
00
01
ff
ff
01
01
02
01
ff
01
02
ff
00
00
00
00
fe
ff
fe
fc
00
fd
fc
fe
00
00
00
ff
02
02
ff
01
02
01
02
ff
fd
04
02
01
fe
03
ff
02
fd
01
03
02
00
00
01
04
01
01
02
ff
02
fe
fe
fd
fe
05
ff
04
01
02
ff
01
ff
01
00
01
01
00
00
02
ff
00
fe
03
ff
fe
ff
ff
00
00
00
fe
ff
ff
fe
ff
ff
00
ff
fd
fd
02
ff
04
ff
02
ff
04
fc
ff
02
00
02
02
ff
02
fe
00
fd
fe
fd
fd
fd
fd
fe
fe
fd
00
01
fd
fd
02
00
02
fd
01
00
01
fe
ff
04
01
ff
01
01
ff
00
03
01
06
ff
02
01
00
00
00
00
00
00
00
00
00
00
00
ff
01
fd
00
fc
00
00
ff
00
00
00
00
00
00
00
00
00
00
01
03
00
02
01
01
03
fc
fd
fc
fe
fb
fd
fd
fb
fc
fd
00
00
00
00
00
00
00
00
00
fe
00
fd
fd
fe
fe
00
fe
fe
fe
03
fd
03
fd
02
02
01
fe
02
02
03
00
02
00
00
fb
00
00
00
fe
00
01
01
ff
02
01
fe
ff
ff
fe
fe
00
ff
00
00
fe
07
ff
ff
ff
00
01
fd
fd
02
01
fd
fe
03
02
ff
fe
03
00
00
00
00
00
00
00
00
00
ff
01
fd
00
03
02
02
01
02
ff
02
ff
ff
02
ff
02
00
ff
01
fd
00
fe
01
fe
00
00
01
fd
fe
00
fe
fa
fd
ff
fb
fc
ff
ff
02
ff
ff
ff
fe
00
00
03
01
00
00
fe
00
fd
00
04
01
00
02
01
00
02
fe
03
06
00
ff
00
ff
00
ff
01
00
ff
02
02
02
04
01
00
03
05
ff
fb
fb
fb
fc
fb
ff
ff
ff
00
01
fe
fe
00
fe
ff
00
01
ff
00
00
ff
00
fe
ff
00
fe
00
03
00
ff
02
02
fe
05
03
00
01
01
02
01
ff
ff
02
03
fe
ff
ff
00
00
01
01
03
03
03
00
ff
00
00
01
01
ff
01
02
00
01
02
01
ff
04
fe
01
07
03
02
01
02
01
00
04
05
ff
00
00
00
00
00
00
00
00
00
fc
ff
fd
ff
ff
fe
01
02
00
00
00
00
00
00
00
00
00
00
03
01
00
03
01
00
05
03
ff
00
01
fd
01
00
fe
ff
00
ff
00
00
00
00
00
00
00
00
00
fc
fd
ff
00
01
00
ff
00
fe
fe
fc
01
ff
fd
ff
00
ff
fd
ff
00
01
fd
fe
fe
ff
fe
fe
01
02
01
ff
00
00
fe
00
06
fd
fd
fe
fe
fe
00
00
03
04
ff
fd
fe
fe
fb
fb
fe
fd
fb
ff
01
03
ff
ff
04
fe
01
06
00
00
00
00
00
00
00
00
00
01
00
01
01
ff
02
01
02
02
ff
ff
ff
01
fd
fd
01
ff
fe
fe
fd
fe
fc
fb
01
fc
fd
00
fc
fc
ff
fd
fc
fe
fc
fb
01
fd
fd
fe
fe
fe
fe
fe
fd
fe
ff
ff
01
fe
00
01
00
01
00
01
03
02
01
02
01
fe
00
fd
fe
fe
ff
01
06
01
03
05
00
02
01
01
03
00
01
fe
ff
fe
ff
ff
01
ff
fe
01
fe
fc
00
00
fa
02
fe
fb
00
02
ff
05
03
fb
ff
ff
fa
00
ff
fc
00
04
fd
00
fe
ff
01
00
00
ff
03
00
01
00
02
01
ff
00
fe
01
ff
01
00
ff
00
ff
fe
fe
00
fe
03
fe
fd
02
fc
fd
01
00
01
01
ff
03
00
ff
00
ff
04
02
00
01
03
00
ff
00
fe
00
00
00
00
00
00
00
00
00
07
fe
02
03
fc
01
fb
fa
fd
00
00
00
00
00
00
00
00
00
03
01
01
01
00
00
ff
ff
fe
02
01
01
00
00
ff
00
fe
ff
00
00
00
00
00
00
00
00
00
03
fd
fb
ff
fa
fb
ff
fb
00
00
01
00
fe
03
03
fe
03
01
fc
ff
fe
02
06
02
03
05
01
ff
02
02
01
02
ff
ff
fe
fe
ff
ff
00
fe
ff
00
fd
fe
ff
05
fe
ff
00
fa
fe
ff
fe
01
01
fe
03
03
00
ff
01
00
01
00
00
00
00
00
00
00
00
00
fe
ff
04
00
01
00
ff
01
fe
05
fc
02
01
fd
01
fe
fe
00
ff
00
ff
03
02
ff
02
01
fd
ff
fd
fe
fd
fc
01
fe
fd
00
03
02
01
02
00
00
fe
fd
fe
01
01
04
fe
02
03
04
03
fe
03
01
02
03
07
ff
04
03
ff
fd
fb
fc
ff
ff
00
04
02
03
03
02
01
02
04
01
fe
02
03
03
02
fe
03
02
ff
00
00
fd
00
01
06
fe
02
02
01
01
ff
fd
00
fe
00
00
00
ff
01
01
04
01
01
01
00
01
01
04
05
03
03
01
03
02
03
ff
03
03
01
01
00
ff
ff
fe
fe
fe
fd
fd
00
01
ff
01
00
03
03
fe
01
01
01
04
05
02
06
03
fe
00
03
02
01
01
04
ff
02
05
00
00
00
00
00
00
00
00
00
fd
fd
fe
ff
fe
fe
fc
fe
fc
00
00
00
00
00
00
00
00
00
03
02
04
00
05
02
fe
03
04
03
01
ff
03
02
fe
00
fd
fe
00
00
00
00
00
00
00
00
00
fd
02
fd
00
ff
fc
02
03
00
01
05
02
ff
02
fe
00
00
ff
fa
fe
ff
01
fd
00
04
03
03
04
03
02
02
02
01
04
03
fe
00
01
01
fe
ff
fe
fe
fe
fe
05
03
02
00
02
00
ff
03
02
fd
01
01
02
03
01
07
03
01
00
00
00
00
00
00
00
00
00
fe
02
02
05
04
01
05
01
fc
00
01
ff
02
00
01
fb
00
fe
00
04
03
fe
02
01
02
03
03
03
01
fb
00
ff
fc
00
00
fe
04
01
fc
05
02
ff
ff
01
01
01
03
02
01
01
03
02
02
03
01
02
01
ff
fe
00
ff
ff
01
01
03
ff
03
00
fe
ff
fe
00
01
00
ff
fe
fc
fe
fe
fd
01
02
00
02
00
fe
02
fe
fd
01
00
fe
fd
ff
fd
00
01
00
02
04
00
ff
00
fb
fd
fc
fc
01
01
fb
fd
fe
fb
fe
fe
fe
ff
ff
ff
fe
00
fe
fe
ff
fd
00
01
ff
fe
00
fd
fe
ff
fc
ff
04
05
ff
04
fc
fe
fd
fd
03
03
01
fe
01
fa
00
fc
01
05
00
ff
ff
00
fd
00
ff
fe
ff
00
00
00
00
00
00
00
00
00
03
fc
fb
00
f9
fe
fb
fd
01
00
00
00
00
00
00
00
00
00
01
fd
fe
fe
fc
ff
ff
fe
00
fd
fc
01
fb
ff
04
00
05
05
00
00
00
00
00
00
00
00
00
ff
04
03
01
02
01
00
ff
fd
ff
fe
fa
fd
fc
ff
00
fe
03
00
ff
fd
01
ff
ff
00
00
01
00
ff
ff
ff
fd
01
fe
02
04
03
01
ff
00
ff
ff
00
00
00
01
fd
fe
ff
fc
fe
fc
fa
fc
02
02
00
03
00
00
00
ff
02
00
00
00
00
00
00
00
00
00
04
ff
fb
ff
fb
04
fb
01
06
05
fc
fd
fc
f9
01
fe
00
02
fe
00
02
02
01
01
03
01
00
01
fe
fc
00
00
fe
01
00
fd
ff
fd
fe
00
ff
01
fe
ff
02
fd
01
04
fe
ff
02
00
fc
00
ff
00
ff
ff
00
00
ff
01
01
ff
00
ff
fd
00
00
02
fe
01
01
fd
fd
03
01
fc
00
05
ff
00
00
01
00
00
00
00
01
00
ff
02
02
fe
01
02
fe
fe
01
00
ff
01
00
ff
02
00
ff
02
00
ff
fd
01
01
fe
00
00
01
03
fc
fd
05
00
fb
00
03
fe
ff
01
01
ff
00
01
00
00
01
01
01
03
ff
ff
02
00
fd
01
ff
ff
01
00
ff
01
01
ff
01
01
fb
fe
07
ff
fc
03
03
fc
00
00
00
00
00
00
00
00
00
fe
ff
ff
00
fd
ff
03
fe
fe
00
00
00
00
00
00
00
00
00
ff
fd
ff
02
fd
fe
05
00
fd
00
fe
ff
01
ff
fe
01
02
01
00
00
00
00
00
00
00
00
00
fe
01
02
fd
fe
01
00
fc
fd
05
00
fe
ff
01
fe
fd
fe
00
01
fe
01
00
ff
fe
ff
01
ff
fe
01
01
ff
fe
01
01
fd
02
00
ff
01
00
00
00
02
00
01
02
00
ff
ff
02
fe
fc
01
00
ff
00
01
fe
fe
02
01
fe
00
00
00
00
00
00
00
00
00
00
ff
01
02
ff
ff
03
00
fe
02
01
ff
00
02
00
00
02
03
01
fe
ff
01
00
fd
ff
03
fe
fc
00
01
01
fd
01
02
fb
fe
00
03
fd
00
04
ff
fe
00
00
fe
06
04
01
02
00
01
00
03
03
01
00
00
fe
fd
fe
ff
01
02
00
ff
fd
fb
fc
fc
fd
01
01
03
fd
fd
fc
fa
fe
fe
fe
01
04
00
ff
fd
fe
fe
fe
00
00
04
ff
fe
02
02
07
02
02
00
02
ff
fe
ff
ff
03
fe
ff
02
01
fc
fc
fe
fb
fd
fc
fe
ff
01
ff
fd
fd
fd
ff
fe
01
ff
ff
fd
fc
fc
fc
fd
fd
ff
ff
02
02
01
01
01
04
02
04
01
01
fe
ff
fe
fe
01
02
03
00
01
ff
fe
fd
fb
fe
fd
fe
01
00
00
00
00
00
00
00
00
00
ff
fe
ff
fd
fe
03
fd
fd
01
00
00
00
00
00
00
00
00
00
01
fd
fd
fe
fc
fe
fd
ff
01
02
ff
ff
fd
fe
fd
02
02
01
00
00
00
00
00
00
00
00
00
fe
02
fe
00
03
00
fd
02
fe
ff
fe
fb
fd
fe
fc
ff
01
fe
02
02
fe
ff
fd
fb
fe
00
01
02
00
ff
00
ff
00
00
03
01
02
ff
fd
fd
fd
ff
fe
ff
00
04
ff
fd
01
fc
fe
fc
fe
02
02
01
ff
fd
ff
01
01
03
00
00
00
00
00
00
00
00
00
00
02
01
00
01
04
04
02
04
01
00
fe
fe
00
fe
01
ff
fe
01
04
00
fd
fc
fd
fb
fe
02
fd
02
02
00
00
00
ff
ff
03
02
02
00
fe
ff
fe
fd
ff
ff
00
00
ff
fe
ff
fd
fe
fd
fe
00
02
01
ff
00
fe
ff
ff
ff
01
00
01
00
ff
fd
ff
fd
fd
00
ff
ff
ff
ff
ff
01
01
00
00
fe
fe
fc
fd
fd
fe
fd
00
01
01
ff
fd
fd
fd
ff
fd
00
02
00
00
fe
ff
00
00
fe
ff
01
00
00
fe
00
fe
fe
ff
ff
02
01
ff
ff
00
ff
00
00
ff
00
ff
ff
01
ff
01
03
00
02
03
02
01
01
01
00
00
ff
00
00
01
01
00
fe
fe
00
ff
00
00
ff
00
00
ff
ff
ff
00
00
02
00
00
00
00
00
00
00
00
00
02
01
00
03
00
ff
fe
fe
00
00
00
00
00
00
00
00
00
00
ff
ff
ff
ff
00
01
fe
00
02
03
00
fd
00
fe
fd
ff
00
00
00
00
00
00
00
00
00
00
00
00
ff
00
fc
fb
fc
fb
fc
fd
02
02
02
03
ff
00
02
ff
00
01
00
ff
00
fe
ff
ff
ff
01
01
01
ff
00
ff
00
00
00
00
ff
fe
ff
fd
fe
00
fd
ff
03
00
fe
fa
ff
fb
fa
fb
fc
fd
ff
ff
ff
fc
fc
00
fe
01
02
00
00
00
00
00
00
00
00
00
01
00
03
00
00
02
02
00
01
02
01
fe
01
00
fe
00
01
04
ff
fe
fa
fe
f9
fb
fd
fd
00
ff
00
ff
01
ff
fe
02
00
01
03
01
fd
03
00
fc
fe
fd
fb
fe
fe
ff
00
fe
fd
03
02
00
ff
ff
01
ff
fe
ff
02
00
00
00
ff
00
01
00
fe
ff
00
02
02
04
ff
fc
01
03
fe
fe
ff
01
00
fe
02
ff
fd
01
01
00
fe
01
02
ff
fd
01
02
00
ff
fe
01
02
00
00
01
ff
fe
01
00
02
01
fe
00
04
ff
fd
fe
03
02
ff
fc
02
05
fd
fc
fe
00
ff
ff
01
ff
ff
02
01
01
00
fe
fe
00
fd
fe
00
00
ff
00
00
ff
ff
fe
00
02
01
ff
03
01
ff
fe
03
04
fe
fd
fe
00
00
00
00
00
00
00
00
00
01
01
01
00
ff
03
fe
fd
01
00
00
00
00
00
00
00
00
00
01
02
00
00
04
01
fd
fc
00
01
02
00
fe
01
02
00
02
03
00
00
00
00
00
00
00
00
00
fe
fb
ff
02
01
fe
00
02
02
00
ff
ff
02
01
00
ff
ff
00
00
01
ff
00
01
ff
ff
00
01
fd
00
ff
00
fe
fe
02
01
01
01
00
ff
02
01
ff
ff
00
00
01
03
01
fc
ff
06
fe
fc
fd
ff
fd
fe
00
ff
fe
03
02
01
00
00
00
00
00
00
00
00
00
fe
fe
ff
ff
fe
fe
02
01
01
02
02
00
fb
fe
07
fe
fd
00
02
fd
fe
01
02
00
fe
ff
01
fe
fe
ff
00
fc
fc
ff
00
fd
01
00
fe
01
01
01
00
00
00
fe
ff
02
ff
01
03
fd
ff
01
00
fe
02
00
00
01
00
02
00
00
01
00
02
03
00
01
01
00
03
ff
00
01
fe
00
02
01
00
00
00
02
fe
ff
01
fd
fe
01
fd
fd
01
fb
fa
fe
fd
fd
01
fc
fb
fe
fe
fb
fe
fc
f9
fc
02
ff
ff
00
fe
fe
02
00
fe
00
ff
00
02
ff
ff
04
01
ff
ff
ff
00
00
ff
00
00
00
01
fb
fe
00
ff
ff
03
fb
fe
00
ff
fe
02
ff
ff
01
00
01
02
00
ff
01
01
fe
00
04
01
fe
00
00
00
00
00
00
00
00
00
fc
f9
fc
ff
fa
fd
00
fc
fc
00
00
00
00
00
00
00
00
00
03
fd
ff
02
fe
01
01
01
00
ff
ff
ff
ff
fe
ff
00
ff
00
00
00
00
00
00
00
00
00
00
00
00
00
ff
ff
00
ff
fe
00
01
01
02
02
00
00
03
06
02
01
01
02
01
02
02
01
02
01
ff
fe
02
fe
ff
01
00
02
01
01
00
01
01
ff
01
02
00
01
fe
fb
fe
02
fe
01
ff
fa
fe
ff
01
01
fe
ff
01
fe
02
02
00
00
00
00
00
00
00
00
00
ff
ff
02
fe
ff
01
ff
03
01
fe
fb
fe
00
fc
fe
ff
fc
fe
01
00
ff
02
01
ff
02
05
02
ff
ff
fe
fe
fe
fe
ff
ff
fd
01
00
00
02
00
01
01
01
00
fe
ff
01
fd
fc
fe
ff
ff
fe
01
01
01
00
ff
ff
02
02
01
01
00
02
ff
fe
ff
02
ff
ff
ff
01
03
01
ff
ff
00
01
01
fc
fe
00
fe
fc
fd
02
fd
fb
fa
fe
01
fc
fb
fd
01
fe
fd
fd
ff
00
00
fe
fe
03
ff
fd
fd
fd
00
01
fb
fc
04
02
ff
ff
01
02
ff
fe
00
ff
ff
00
ff
fd
ff
02
fe
fc
05
02
fe
ff
01
00
fd
fc
fe
01
fc
fc
00
ff
00
02
00
ff
01
01
00
00
01
00
02
00
ff
01
02
03
00
00
00
00
00
00
00
00
00
01
02
02
01
01
02
01
02
00
00
00
00
00
00
00
00
00
00
ff
fe
01
02
00
ff
01
03
01
ff
01
03
fd
fc
fc
00
fe
fb
00
00
00
00
00
00
00
00
00
01
02
01
02
04
03
02
04
03
fd
fd
03
fc
fa
fe
00
fc
fe
01
01
02
00
fe
ff
02
fd
00
ff
fe
01
00
ff
00
01
01
ff
ff
ff
fd
03
01
fc
05
04
fe
fd
ff
00
fe
fd
ff
ff
fd
fb
fd
00
00
fe
fe
00
01
00
00
00
00
00
00
00
00
00
00
00
fe
ff
01
ff
fd
00
01
fe
fe
fd
ff
01
fe
fe
01
02
01
fe
02
01
04
02
01
00
00
01
02
fe
ff
00
fb
fa
fd
fd
f9
fc
ff
03
07
fd
fe
00
fc
f9
fa
ff
fe
fd
fd
ff
ff
ff
ff
fd
01
00
01
fe
01
00
01
01
ff
01
01
00
ff
fe
fe
fd
fc
fe
00
00
01
00
00
02
00
ff
01
fd
fe
00
fc
00
07
fc
ff
06
00
fe
fe
fe
fe
01
ff
ff
02
01
ff
fe
fe
fe
04
00
01
02
01
00
00
00
00
02
fd
ff
01
01
02
ff
ff
00
00
00
00
02
fe
00
05
fe
01
07
fe
00
05
ff
01
00
fe
01
03
00
02
02
00
00
00
ff
01
00
01
01
01
00
00
ff
ff
fe
fd
00
ff
01
00
00
00
00
00
00
00
00
00
fe
fe
02
fd
fd
02
fe
00
00
00
00
00
00
00
00
00
00
00
00
00
01
fe
00
fe
fe
00
00
ff
01
00
00
00
00
00
ff
fe
00
00
00
00
00
00
00
00
00
fd
fd
fe
fc
fa
ff
ff
fe
00
01
03
01
03
04
05
03
02
04
ff
02
ff
ff
01
00
fd
ff
00
00
00
00
ff
01
02
00
01
00
fa
fd
03
f9
fc
03
fb
fd
01
03
01
ff
00
00
02
ff
00
06
fe
00
fe
fb
fe
ff
ff
fe
00
00
00
00
00
00
00
00
00
00
01
01
01
00
02
05
01
02
00
04
01
ff
03
00
00
01
01
00
fc
fd
fd
fb
fb
fb
fc
fc
fd
00
01
00
fe
02
00
fc
00
00
01
ff
fd
00
00
ff
ff
00
ff
ff
02
02
00
00
01
00
02
02
01
01
00
ff
01
02
fc
00
02
fe
00
00
fd
fe
ff
00
ff
fe
01
ff
00
ff
00
00
fe
00
03
00
fe
fd
ff
fd
fe
fd
fe
fd
00
01
05
01
ff
02
ff
01
02
01
01
00
02
01
00
00
01
01
00
00
ff
00
01
ff
ff
fe
01
ff
00
03
fe
ff
03
fd
ff
01
05
00
fb
04
ff
fa
04
ff
fb
fe
fe
00
ff
fd
fd
ff
00
fe
01
ff
01
fe
01
01
fe
00
00
ff
01
03
01
02
02
00
01
02
00
00
00
00
00
00
00
00
00
00
01
fe
02
03
02
00
02
06
00
00
00
00
00
00
00
00
00
01
02
00
00
01
02
ff
00
05
fe
ff
01
fb
ff
04
fc
00
03
00
00
00
00
00
00
00
00
00
fd
ff
fe
fb
fd
ff
fd
ff
00
fc
fd
fe
fa
fa
fc
fd
fa
fc
ff
ff
00
fe
fb
fe
ff
fc
fd
fe
ff
02
fe
fe
01
ff
ff
04
01
01
fe
00
00
fe
00
01
ff
fd
fc
00
00
fe
ff
00
ff
ff
01
01
01
ff
fe
03
01
01
01
00
00
00
00
00
00
00
00
00
ff
fe
02
fe
fb
fd
ff
fe
01
01
00
02
00
02
05
00
01
03
02
04
03
00
01
07
01
ff
05
fe
02
fa
fd
fe
fd
ff
fe
fe
fd
00
01
fc
00
04
fb
00
06
03
ff
fa
03
00
fe
ff
02
03
01
fe
fc
00
ff
00
ff
00
02
fc
fe
fe
ff
fc
fe
fe
fc
fd
fd
01
04
ff
00
01
02
ff
fd
fc
fc
ff
fe
ff
fe
fe
ff
fe
05
01
fc
01
04
ff
ff
00
02
00
fe
02
ff
02
fe
01
03
fe
fa
01
07
fe
01
ff
03
fd
fb
fe
00
04
00
00
ff
02
00
fd
02
01
01
01
00
01
00
00
02
06
00
fb
00
02
00
fc
04
05
03
fd
fd
01
01
00
fd
02
02
fe
ff
04
01
00
fe
03
ff
fe
00
00
00
00
00
00
00
00
00
00
01
03
02
00
fe
03
ff
fe
00
00
00
00
00
00
00
00
00
fb
00
06
02
00
ff
04
ff
fa
02
01
ff
00
01
00
00
02
01
00
00
00
00
00
00
00
00
00
ff
fe
01
fe
fe
00
00
fd
ff
ff
ff
01
00
00
00
00
02
ff
fc
fd
fd
fc
fb
fd
00
00
fd
01
fe
fd
ff
00
00
fd
02
03
fe
fe
ff
ff
fe
ff
00
ff
00
ff
04
03
fe
01
ff
02
fe
00
04
fe
fb
00
ff
ff
fd
01
03
00
00
00
00
00
00
00
00
00
04
ff
fc
fc
02
03
fa
03
05
01
ff
00
01
03
ff
00
00
00
fd
ff
03
01
00
01
02
02
fd
fe
01
ff
03
ff
fd
00
fb
fd
ff
00
02
02
00
fd
03
00
fc
02
00
00
00
fd
fe
00
fe
00
02
ff
ff
ff
fc
00
ff
fd
fe
02
03
00
03
03
04
02
03
03
ff
fe
01
fe
fc
fd
ff
fd
fe
ff
fe
ff
ff
fe
fd
fe
fd
fe
fe
02
fe
00
ff
fd
00
00
fe
00
04
01
04
07
01
02
03
00
fd
01
fe
00
01
00
fe
ff
ff
00
00
01
ff
fc
00
ff
fd
00
fe
00
fe
ff
00
ff
00
01
00
00
00
00
02
02
01
01
00
00
01
ff
00
ff
fe
ff
fe
fc
ff
fe
00
ff
ff
fe
01
fe
fc
ff
00
00
00
00
00
00
00
00
00
ff
02
00
fe
00
fe
01
02
00
00
00
00
00
00
00
00
00
00
00
ff
00
fe
ff
fe
ff
fd
fc
01
01
02
ff
fe
ff
fe
fd
fe
00
00
00
00
00
00
00
00
00
fc
00
fe
fe
01
fe
fe
01
fe
01
00
02
ff
ff
04
ff
fe
01
04
01
04
02
00
06
04
ff
05
02
00
fe
ff
fc
fe
fe
fc
ff
ff
fd
fd
00
fe
fe
00
fe
ff
01
01
ff
fd
ff
fd
00
01
ff
ff
01
fe
00
01
00
fe
ff
fe
00
00
00
00
00
00
00
00
00
00
02
fe
00
ff
ff
ff
ff
00
02
06
03
00
01
fd
03
05
04
02
00
01
01
02
02
00
01
01
fe
fd
f9
00
ff
00
01
ff
ff
fe
fe
02
fe
fd
00
ff
ff
ff
00
01
01
fc
fe
03
fc
fc
fe
01
00
00
fe
01
01
fd
fd
00
02
02
02
fd
00
00
fe
fa
fd
03
00
00
fe
00
00
00
fe
ff
ff
ff
ff
00
00
01
00
ff
00
ff
ff
ff
ff
ff
00
01
01
ff
fe
ff
fe
03
02
01
01
01
01
02
00
00
01
00
fe
00
00
01
04
00
01
01
01
ff
fe
fe
ff
00
ff
00
ff
ff
00
02
02
03
00
ff
00
fe
ff
02
fe
fe
00
01
00
01
fe
ff
01
fe
fe
00
03
00
00
01
03
fe
fe
ff
00
00
00
00
00
00
00
00
00
00
00
fe
ff
01
03
01
01
03
04
00
00
00
00
00
00
00
00
00
01
00
00
01
01
ff
ff
ff
00
00
ff
ff
fe
ff
ff
ff
00
00
00
00
00
00
00
00
00
00
00
fd
fd
fe
01
00
ff
03
02
04
05
05
03
fc
ff
fe
fd
f9
fc
04
03
02
fd
fe
ff
fd
fc
ff
01
01
02
fe
ff
02
ff
fe
ff
ff
00
00
00
00
00
ff
00
00
ff
fe
00
00
00
00
00
01
02
01
01
02
fd
ff
00
fe
fd
ff
00
00
00
00
00
00
00
00
00
01
02
01
fc
ff
03
fe
fd
00
00
ff
00
fe
01
00
00
ff
01
03
02
04
00
ff
00
fb
fa
fd
fd
fd
fd
00
ff
ff
ff
00
00
00
00
01
00
00
00
01
02
02
01
fe
ff
02
fe
00
00
00
ff
01
fe
01
01
fd
00
01
00
00
00
fd
00
02
fc
01
01
fe
00
00
fd
01
01
fd
01
00
00
01
fe
fe
00
ff
ff
00
ff
ff
00
00
ff
00
01
01
02
00
01
ff
02
02
02
fe
ff
ff
00
01
ff
01
ff
00
02
fe
00
ff
00
00
01
ff
ff
01
fe
00
00
ff
01
ff
ff
00
ff
ff
00
ff
ff
01
02
00
00
00
fd
00
01
00
00
00
fe
01
01
fd
01
01
ff
00
00
fd
00
00
fd
00
00
ff
00
00
00
00
00
00
00
00
00
00
00
00
00
00
ff
ff
01
02
00
00
00
00
00
00
00
00
00
00
00
fd
01
01
fc
00
00
00
01
00
00
01
ff
ff
00
00
ff
01
00
00
00
00
00
00
00
00
00
ff
00
00
00
00
00
00
01
00
02
f9
ff
04
fa
01
00
fc
00
00
fd
00
01
fc
01
00
fe
00
00
ff
01
01
fe
00
01
00
00
01
ff
ff
01
00
00
01
ff
ff
00
00
01
00
ff
00
00
01
01
ff
fe
02
ff
fd
01
00
ff
00
00
00
00
00
00
00
00
00
00
00
fe
01
00
fe
01
00
00
01
00
01
00
00
01
00
00
00
ff
01
fa
02
01
f9
03
01
fc
01
ff
00
ff
00
01
00
ff
00
ff
01
00
03
ff
ff
00
fe
ff
00
01
fc
fe
03
00
fa
01
01
00
ff
fd
fe
04
ff
fd
01
01
01
fd
fb
ff
fe
fd
fc
03
02
04
ff
fe
ff
fd
02
03
02
01
00
fe
fe
00
00
ff
00
ff
ff
00
04
04
fd
01
05
00
fd
fd
fe
ff
01
fe
ff
05
ff
ff
ff
fe
00
01
02
fc
03
03
01
ff
00
00
fe
00
fe
02
03
00
01
01
02
03
03
ff
ff
00
fd
fe
00
01
fe
fd
02
ff
fb
ff
01
fe
00
fe
fe
03
fe
fd
00
01
01
fe
fe
01
ff
01
02
00
01
02
00
00
00
00
00
00
00
00
00
02
04
02
fd
03
ff
fd
fe
fe
00
00
00
00
00
00
00
00
00
fe
ff
01
fc
01
01
02
00
01
00
01
ff
01
02
ff
ff
ff
ff
00
00
00
00
00
00
00
00
00
ff
fd
01
fd
01
00
fd
ff
ff
ff
fb
01
00
ff
01
02
ff
05
fd
f9
ff
ff
fd
ff
04
03
07
01
fe
00
03
ff
ff
01
00
00
ff
00
01
ff
00
00
ff
fd
fe
03
04
02
ff
06
ff
fd
fe
fe
00
fe
ff
02
ff
fc
02
00
01
00
00
00
00
00
00
00
00
00
01
fd
ff
02
ff
fc
01
01
00
00
02
fe
ff
04
fc
00
00
fd
fd
fb
01
00
fd
ff
02
00
03
00
00
ff
00
ff
ff
00
fd
fd
ff
00
01
ff
02
01
01
01
01
01
fe
fd
ff
fc
fe
ff
02
02
ff
fc
01
fe
fd
00
ff
02
01
03
fb
ff
00
fd
fc
ff
00
ff
00
fd
01
ff
ff
fe
01
01
01
01
00
00
02
ff
ff
03
02
00
00
fd
ff
00
00
01
fd
00
01
fd
fd
fe
01
03
01
fe
02
02
01
fc
ff
05
04
fb
02
01
ff
00
ff
01
00
01
01
00
00
fe
02
ff
00
03
02
00
01
02
01
fc
fd
ff
fd
fd
01
fe
00
02
fe
fc
ff
fe
fe
02
00
02
00
00
fc
fe
01
04
00
fe
00
01
00
00
00
00
00
00
00
00
00
01
00
00
06
07
03
fd
03
01
00
00
00
00
00
00
00
00
00
01
fd
fe
05
05
fd
ff
03
02
ff
fe
fd
ff
fe
fe
fe
ff
00
00
00
00
00
00
00
00
00
00
00
fd
02
01
00
01
fd
fe
fe
00
fd
01
ff
ff
fd
01
00
fe
01
00
00
ff
fe
fe
fe
ff
ff
fe
fe
ff
ff
fe
ff
01
02
01
02
ff
fd
02
03
00
ff
02
02
00
fd
01
03
01
ff
01
03
ff
fe
fe
00
fc
fc
02
00
03
02
00
00
00
00
00
00
00
00
00
fd
fc
ff
fc
fd
ff
fe
ff
00
fe
fe
ff
fe
01
02
fe
00
00
05
00
fc
02
03
01
fc
00
03
03
02
ff
00
01
fd
ff
01
fe
ff
00
00
fe
fe
fd
fd
fe
fd
02
02
00
ff
06
fb
02
01
fe
00
02
ff
02
05
00
01
00
00
01
fc
ff
ff
00
02
01
04
02
fe
00
00
01
ff
04
00
00
ff
01
02
02
00
00
01
00
ff
01
00
03
00
00
ff
fb
02
fe
ff
fd
fd
fe
fd
fb
fc
ff
fb
fd
00
ff
02
fe
fc
03
fe
00
00
00
00
02
fe
fe
05
00
fe
01
00
ff
fe
ff
fe
fe
ff
fd
00
00
00
fe
ff
03
ff
ff
00
ff
00
03
ff
01
03
ff
02
ff
01
ff
01
01
00
00
03
00
fe
01
00
00
00
00
00
00
00
00
00
fd
ff
ff
fc
fd
00
ff
fb
ff
00
00
00
00
00
00
00
00
00
ff
fe
01
ff
ff
03
00
01
00
fe
01
01
01
01
ff
06
01
01
00
00
00
00
00
00
00
00
00
01
04
02
00
ff
ff
ff
fd
fe
fe
fc
ff
fd
00
00
01
04
03
ff
fd
ff
fe
00
01
01
03
03
01
01
ff
02
04
fe
01
00
00
ff
ff
01
fe
ff
ff
00
ff
fe
fd
ff
01
fd
ff
01
00
f9
fe
01
03
ff
02
03
fc
03
00
00
00
00
00
00
00
00
00
00
00
00
00
fe
01
04
fd
01
00
00
fd
fe
00
fe
fe
fe
01
fd
ff
01
fd
fe
fe
ff
00
01
01
04
01
ff
fe
00
fe
ff
01
01
00
ff
ff
01
00
fe
05
02
ff
02
01
ff
fe
fc
fb
fd
01
ff
00
01
02
00
ff
fc
fe
02
ff
01
02
03
04
ff
fa
ff
00
fd
00
01
02
00
00
00
ff
01
ff
00
03
04
03
fd
fe
00
01
00
01
04
01
01
00
00
01
fe
ff
ff
04
01
01
03
02
04
04
01
01
02
02
00
00
00
01
03
00
ff
00
00
01
ff
ff
00
03
00
ff
ff
00
00
00
00
01
00
00
01
02
ff
fd
00
fd
ff
01
01
03
03
01
fe
ff
fe
ff
00
01
02
01
01
00
00
ff
fe
02
01
00
00
00
00
00
00
00
00
00
00
00
fd
ff
03
02
00
01
04
03
00
00
00
00
00
00
00
00
00
01
01
01
ff
fe
00
03
02
00
ff
fe
ff
fd
fc
fd
fe
fd
fe
00
00
00
00
00
00
00
00
00
fd
fd
fe
fc
fa
fb
fe
fe
fc
ff
fc
fe
fc
fa
fc
01
00
ff
02
ff
02
fe
fb
fe
01
fc
ff
01
01
ff
fd
fd
fd
00
01
03
00
ff
00
00
ff
fe
02
01
01
01
00
01
03
04
04
01
04
02
ff
01
00
fc
fb
fe
ff
ff
02
00
00
00
00
00
00
00
00
00
00
00
01
fd
fc
fe
fd
00
02
05
03
03
07
06
05
01
02
03
fd
fc
ff
fb
fa
fd
fe
fe
ff
fb
fc
fe
fc
fd
fb
fd
fd
fe
fe
ff
ff
fd
fc
fe
01
ff
ff
fd
fe
02
fc
03
07
01
03
fe
fc
fd
03
fc
02
05
ff
02
ff
01
ff
fd
ff
fb
fc
00
fe
02
01
01
ff
02
ff
fd
01
ff
00
00
ff
00
fe
00
00
00
01
00
ff
ff
02
01
04
fe
01
00
fe
02
00
ff
03
00
fd
01
00
ff
05
01
fe
03
fd
fb
02
fe
ff
03
01
fe
03
fd
fc
00
fd
01
02
01
00
00
00
ff
00
00
00
ff
ff
fe
fd
00
03
ff
03
03
fe
fd
02
fd
00
04
ff
01
00
02
00
ff
01
fe
fd
01
ff
ff
00
00
00
00
00
00
00
00
00
02
00
01
01
00
ff
01
00
fd
00
00
00
00
00
00
00
00
00
03
ff
ff
01
fe
ff
01
00
ff
fe
fe
02
00
02
02
01
02
00
00
00
00
00
00
00
00
00
00
01
00
01
00
fe
fd
ff
fc
ff
01
ff
fc
fe
fb
fe
ff
ff
01
01
fe
fe
ff
fc
fe
ff
ff
01
ff
fc
02
fb
01
06
00
01
00
01
ff
ff
00
ff
00
00
ff
ff
03
01
ff
02
01
fd
03
ff
fc
fd
fe
02
fd
02
04
00
02
00
00
00
00
00
00
00
00
00
00
ff
fc
01
fc
01
07
00
03
00
02
00
00
00
01
00
01
01
fd
00
fe
00
ff
fd
ff
ff
fe
01
00
02
ff
ff
00
fd
00
00
01
01
00
00
fe
ff
00
ff
00
01
fd
fc
fe
fe
fe
fd
01
ff
00
ff
00
04
fe
fe
03
fe
fd
01
ff
02
00
fd
ff
ff
fc
fa
ff
00
04
02
fd
00
07
ff
fc
03
ff
01
01
fd
ff
ff
fd
ff
00
ff
00
fd
00
00
ff
00
00
01
02
00
fe
03
01
00
01
01
00
02
03
02
ff
01
04
ff
fd
03
00
03
02
ff
00
04
00
fe
02
00
00
00
ff
ff
ff
02
00
02
ff
fe
fd
00
ff
fd
02
00
00
ff
00
05
fd
ff
02
ff
fd
01
00
03
04
fd
01
06
ff
fc
04
00
00
00
00
00
00
00
00
00
01
02
fe
00
02
ff
03
02
01
00
00
00
00
00
00
00
00
00
02
04
03
fe
00
05
fe
fc
04
01
03
01
fd
ff
ff
fd
ff
fd
00
00
00
00
00
00
00
00
00
fe
00
fb
ff
00
fd
fc
fe
00
ff
02
06
fb
fc
03
fd
f9
ff
fc
04
04
fb
fe
01
fc
fa
fe
00
ff
00
fd
fe
02
00
00
01
fe
fe
02
fe
fe
00
00
ff
00
02
02
00
00
00
ff
03
02
03
ff
ff
fe
ff
fd
ff
00
fd
00
00
00
00
00
00
00
00
00
00
00
00
fe
fe
fe
ff
00
fd
ff
02
02
fe
03
02
00
01
01
00
fc
03
01
fa
fc
01
fe
f9
ff
01
fc
fd
ff
ff
fd
01
01
fe
00
03
01
00
01
00
fe
00
00
fd
fd
fe
fe
fc
fd
01
01
00
ff
ff
ff
00
00
ff
01
00
01
ff
ff
fb
01
fe
fe
02
04
04
00
ff
fd
ff
fd
ff
00
ff
01
fe
ff
ff
ff
ff
01
ff
00
01
fc
fc
fe
fd
fe
fe
00
fe
fd
02
02
00
ff
ff
fd
00
00
01
00
00
fc
fe
fb
fb
ff
ff
02
ff
ff
ff
00
ff
00
ff
01
04
01
01
01
ff
ff
ff
01
02
01
01
00
fe
01
00
00
04
06
03
00
01
ff
fe
ff
01
00
00
02
ff
ff
ff
ff
fe
fe
00
02
03
00
00
00
00
00
00
00
00
00
ff
ff
fe
01
02
00
05
06
04
00
00
00
00
00
00
00
00
00
ff
ff
ff
fe
fe
ff
02
01
ff
01
00
01
ff
00
02
00
02
00
00
00
00
00
00
00
00
00
00
ff
ff
03
fe
fe
ff
02
00
ff
ff
fc
fe
fd
fb
fc
01
02
01
00
ff
ff
ff
ff
ff
02
04
04
ff
fe
ff
ff
ff
00
04
00
00
00
00
00
fe
00
00
ff
00
00
fb
f9
fa
fc
fb
fb
fe
00
fe
fd
ff
ff
fd
fd
ff
01
02
03
00
00
00
00
00
00
00
00
00
01
ff
01
00
ff
01
05
03
00
00
ff
ff
04
05
02
01
01
ff
fe
fc
ff
ff
fe
ff
04
06
06
04
01
00
01
fe
fe
ff
01
00
01
00
01
02
02
03
02
01
02
fe
ff
ff
fe
fe
fd
ff
ff
fe
00
fe
01
00
fb
fe
01
ff
01
fc
ff
fd
fe
02
fd
ff
00
ff
00
00
00
fe
fd
ff
02
fe
00
fe
00
ff
ff
02
01
00
01
01
fe
00
fe
ff
01
01
ff
00
01
00
00
ff
ff
03
01
ff
fe
fd
ff
ff
00
00
00
ff
02
00
fd
ff
fe
ff
fe
fe
fd
00
ff
00
fe
01
ff
ff
03
00
01
03
01
00
ff
fd
fd
ff
ff
00
fd
ff
01
ff
00
ff
fd
00
00
fd
01
00
ff
00
ff
fe
fe
00
fe
00
00
00
00
00
00
00
00
00
00
fe
fc
fc
ff
00
fe
fd
fd
fd
00
00
00
00
00
00
00
00
00
00
fe
02
00
fd
fd
01
ff
ff
fe
fd
fd
fe
fe
fe
fd
fd
fe
00
00
00
00
00
00
00
00
00
03
03
04
02
01
03
04
02
05
fb
ff
fc
fc
ff
fc
fe
00
fd
fd
fe
fe
fe
ff
ff
ff
ff
ff
ff
00
01
ff
fe
00
00
00
00
00
01
00
03
04
02
03
03
01
00
01
ff
00
01
00
00
ff
fd
fe
00
ff
ff
00
ff
ff
ff
00
00
00
00
00
00
00
00
00
00
ff
fe
ff
fe
ff
00
fe
fe
00
ff
ff
00
01
00
ff
ff
fd
fe
f9
ff
fb
fb
ff
f9
fd
00
fc
04
02
05
04
02
03
04
02
03
fe
ff
ff
00
00
ff
00
00
00
05
ff
fe
02
fb
ff
fd
02
00
02
fe
00
00
00
00
ff
01
ff
fd
fd
01
01
02
01
00
00
00
fd
04
01
00
02
00
02
ff
ff
03
01
ff
fe
01
00
fd
ff
02
02
fe
fd
00
fb
01
ff
ff
00
ff
ff
ff
fd
fb
ff
ff
fe
01
fd
03
00
fe
01
01
01
fe
01
fd
03
01
fe
04
ff
02
ff
00
00
ff
ff
fe
ff
ff
fe
ff
00
03
ff
ff
02
fe
fe
fe
ff
00
02
ff
ff
00
fe
01
ff
02
ff
fe
03
00
fe
03
00
01
00
ff
00
00
00
00
00
00
00
00
00
01
03
fd
fe
ff
00
ff
ff
02
00
00
00
00
00
00
00
00
00
fe
03
00
ff
01
01
02
fe
00
ff
ff
fe
ff
fe
01
fe
ff
02
00
00
00
00
00
00
00
00
00
fe
01
00
fb
fe
fc
00
ff
fe
fc
ff
01
03
04
01
03
01
01
fd
fc
01
03
03
02
00
00
01
03
00
ff
02
fd
00
fe
01
00
01
01
01
ff
fd
01
00
fd
01
00
03
fe
fe
00
00
fe
fc
02
02
fc
ff
01
ff
fe
ff
02
ff
00
00
00
00
00
00
00
00
00
03
fd
fe
04
fc
01
ff
01
00
02
01
fd
00
fd
01
02
ff
03
fe
fe
ff
01
04
00
01
03
00
ff
00
ff
00
fb
00
01
ff
ff
ff
07
00
fe
04
00
ff
ff
01
01
ff
fd
02
ff
ff
02
00
00
01
ff
ff
01
ff
ff
02
02
00
fe
ff
fe
00
01
00
02
01
02
ff
ff
02
00
00
ff
02
01
01
ff
00
00
00
ff
ff
fe
ff
ff
00
fd
fc
01
ff
ff
01
01
00
00
00
01
fb
f9
fb
fe
ff
fe
fd
00
02
00
00
00
01
00
00
fd
fe
00
fe
00
ff
02
03
01
04
04
03
ff
ff
ff
fc
fc
fd
03
01
ff
fc
fa
fa
00
ff
01
01
fe
fe
00
ff
00
02
03
01
fe
fe
02
ff
fd
ff
02
02
01
00
00
00
00
00
00
00
00
00
fe
02
00
f9
fb
f9
fd
ff
fe
00
00
00
00
00
00
00
00
00
fd
ff
02
ff
fd
00
02
04
02
01
00
ff
00
00
ff
ff
00
ff
00
00
00
00
00
00
00
00
00
fe
fe
ff
fd
fc
00
fb
fb
fd
ff
fe
fe
01
01
02
02
01
03
ff
ff
ff
01
00
00
02
01
02
01
00
fe
00
ff
ff
01
03
01
01
01
02
fe
ff
ff
fd
ff
fe
01
02
02
00
00
01
01
00
00
02
00
fe
01
ff
ff
00
01
01
00
00
00
00
00
00
00
00
00
01
ff
fe
fd
fc
fd
01
00
02
fe
fd
ff
fd
fb
fc
00
01
00
fd
fe
00
00
fd
fe
03
00
01
02
03
03
01
02
01
fe
ff
00
fd
fd
ff
ff
00
00
01
02
01
fe
fc
ff
fd
f9
fd
fd
fd
fd
ff
00
ff
fe
00
00
fd
ff
01
02
01
00
00
01
00
01
00
ff
02
04
00
02
07
04
ff
00
02
00
ff
ff
00
fd
fd
01
00
fe
fa
fb
fd
fd
fc
fe
01
00
fe
fe
ff
00
fe
fb
fe
02
ff
00
01
03
01
01
06
04
01
ff
03
02
03
ff
02
06
04
01
01
03
02
00
00
02
00
00
01
01
00
ff
fe
00
fd
fa
fc
fe
fc
fc
00
ff
fe
ff
ff
fe
ff
ff
01
01
05
01
01
07
04
ff
01
03
00
00
00
00
00
00
00
00
00
01
ff
02
fe
fd
01
ff
ff
00
00
00
00
00
00
00
00
00
00
01
05
00
02
07
05
00
02
03
ff
ff
ff
ff
fe
ff
fe
ff
fd
00
00
00
00
00
00
00
00
00
fe
fc
02
fe
fa
fb
00
02
ff
01
03
ff
00
03
03
00
02
04
02
02
00
01
02
ff
02
00
ff
ff
fd
00
ff
fe
ff
ff
fe
00
03
00
00
02
00
fe
01
ff
fe
03
01
03
00
ff
01
ff
fe
ff
fe
fc
ff
fd
fb
fe
ff
fe
fe
00
00
00
00
00
00
00
00
00
fc
fd
fe
ff
fc
fd
ff
fe
ff
fd
fc
ff
ff
fa
fe
02
ff
00
02
03
ff
01
02
01
ff
02
02
fe
fb
ff
ff
fc
fc
03
01
00
00
fd
01
02
fe
ff
02
ff
fd
00
ff
00
ff
ff
00
ff
00
00
01
00
00
fe
fe
00
00
ff
00
01
01
00
01
00
fe
00
ff
ff
02
00
00
00
00
00
fe
00
00
ff
ff
fe
ff
ff
ff
00
ff
ff
fe
00
01
fe
01
02
ff
01
02
00
01
01
fe
00
02
ff
00
01
ff
01
00
fe
01
01
ff
00
00
01
02
ff
02
01
ff
00
00
00
01
00
ff
02
00
ff
01
00
ff
01
ff
fe
fe
fd
00
fc
ff
00
00
ff
00
fd
fe
00
ff
ff
00
02
02
00
02
01
fe
00
ff
ff
00
00
00
00
00
00
00
00
00
00
01
ff
fd
00
03
ff
02
03
00
00
00
00
00
00
00
00
00
01
01
ff
02
01
00
01
ff
ff
ff
01
00
ff
01
01
fd
00
03
00
00
00
00
00
00
00
00
00
ff
ff
00
ff
fd
fe
00
ff
ff
01
fd
fe
02
fd
fd
01
ff
fd
00
01
ff
02
00
ff
00
00
fe
ff
ff
00
fe
ff
ff
ff
01
ff
01
00
00
02
00
ff
00
fe
fe
fe
01
01
fc
02
02
fc
01
02
01
ff
ff
ff
fe
ff
01
ff
00
00
00
00
00
00
00
00
00
00
ff
ff
ff
fd
fe
ff
fd
01
ff
ff
00
01
fc
01
03
fe
01
02
01
00
ff
07
01
fe
07
01
ff
fc
fe
02
fe
fd
01
ff
fc
00
fd
ff
00
ff
00
02
00
00
03
00
ff
00
00
fd
03
01
fc
01
01
01
01
ff
fd
00
ff
fc
fd
fe
fc
fc
ff
ff
00
02
02
00
01
01
02
ff
ff
fe
fe
fd
fd
ff
01
00
00
01
00
fe
ff
ff
02
fe
00
02
fc
ff
03
ff
01
01
00
00
02
00
00
02
00
00
00
01
01
01
00
fe
00
00
ff
01
00
02
01
ff
00
fe
ff
ff
ff
00
00
00
02
00
00
01
00
ff
00
ff
00
00
ff
00
ff
ff
01
01
01
00
ff
fe
ff
fe
fd
01
01
02
00
fc
01
fe
fc
01
00
00
00
00
00
00
00
00
00
00
00
01
02
fd
ff
01
fd
fd
00
00
00
00
00
00
00
00
00
00
01
02
00
ff
00
fe
fd
fe
ff
ff
ff
fe
fe
ff
ff
fe
ff
00
00
00
00
00
00
00
00
00
fe
fe
ff
ff
00
00
ff
ff
01
ff
00
00
00
04
04
02
07
03
fd
fc
fd
fe
00
02
ff
01
03
01
02
ff
00
ff
ff
00
fe
fe
00
ff
02
00
fe
01
ff
fe
01
01
01
01
03
00
fc
00
ff
fb
01
ff
ff
ff
fe
ff
00
ff
ff
00
00
00
00
00
00
00
00
00
00
01
fe
ff
01
fd
00
02
fe
01
00
00
04
ff
ff
00
fd
fe
fe
fd
fe
01
02
05
02
03
06
fe
ff
fe
ff
00
fd
ff
01
fe
ff
00
01
01
00
ff
00
fe
ff
ff
03
ff
ff
02
03
fe
fc
00
ff
01
ff
ff
fe
00
00
ff
01
01
fc
ff
01
03
02
00
fd
fd
ff
00
01
ff
02
ff
ff
00
ff
fe
fd
fd
ff
00
fe
00
ff
00
ff
04
00
ff
01
01
ff
01
03
ff
00
00
ff
01
ff
00
00
01
fe
fe
05
ff
02
01
00
01
fe
fe
00
00
ff
02
00
01
ff
ff
01
00
ff
00
ff
fe
02
01
01
00
02
fe
00
03
03
ff
fd
02
00
03
fe
fd
00
01
ff
fd
01
ff
fe
01
ff
03
00
00
00
ff
00
00
00
00
00
00
00
00
00
01
ff
00
ff
01
fe
02
01
01
00
00
00
00
00
00
00
00
00
fe
fe
03
ff
02
00
00
00
fe
ff
fd
fd
fe
ff
00
ff
ff
00
00
00
00
00
00
00
00
00
00
fe
00
01
fd
00
02
01
fe
fd
00
fe
01
00
03
05
01
fd
fe
ff
00
ff
ff
01
02
00
fc
fd
00
01
ff
fe
ff
00
00
fe
01
ff
fe
ff
ff
ff
00
01
00
00
fe
00
02
fe
02
ff
02
01
fe
00
06
fd
fe
02
01
fe
fc
02
00
00
00
00
00
00
00
00
00
01
02
fd
fe
02
03
ff
fd
02
00
00
01
fd
01
ff
01
00
00
00
ff
fd
01
07
02
00
fd
ff
01
fc
00
ff
00
00
00
ff
fc
ff
ff
ff
ff
ff
fe
01
01
01
fe
fe
03
fd
00
05
00
01
02
fd
fc
04
fb
01
05
ff
02
01
fc
fd
00
fa
01
00
fd
04
00
fe
fc
00
fc
ff
02
ff
00
00
fe
01
00
ff
01
00
ff
00
00
01
ff
ff
02
01
ff
01
00
02
02
01
ff
03
01
fe
02
00
00
01
ff
fe
ff
fd
fe
00
fe
ff
ff
fd
ff
fe
fd
00
00
00
ff
01
01
01
ff
00
ff
ff
ff
ff
ff
fd
02
00
00
03
01
02
00
fd
fb
04
fc
01
04
00
03
00
ff
fd
01
fc
00
ff
00
00
ff
00
00
00
00
00
00
00
00
00
01
00
ff
03
ff
fe
03
fe
01
00
00
00
00
00
00
00
00
00
fe
fc
fe
fc
fd
00
00
00
01
00
02
ff
fe
01
fe
fe
ff
fd
00
00
00
00
00
00
00
00
00
ff
02
fe
01
00
fb
00
fd
fc
fb
fe
02
f9
fe
03
fb
02
02
fd
fd
ff
fa
00
03
fc
03
00
fd
ff
04
fd
00
03
fe
01
00
00
02
02
00
01
00
ff
ff
00
02
01
00
02
ff
fd
02
fe
ff
fc
fc
04
fc
01
04
ff
04
ff
00
00
00
00
00
00
00
00
00
fe
ff
05
fe
03
00
ff
02
01
02
00
00
03
00
ff
00
ff
01
fa
fb
00
fa
ff
00
fe
02
00
00
00
fe
00
fe
fb
00
fd
fe
00
01
00
00
02
00
00
02
00
01
ff
ff
02
00
fe
00
00
01
00
ff
ff
00
00
ff
00
01
03
00
fc
fb
ff
fd
00
01
05
06
00
fe
ff
fe
ff
01
01
03
03
ff
ff
00
01
00
00
00
ff
ff
02
02
02
02
01
ff
00
fe
00
00
01
01
00
01
01
00
ff
ff
00
fe
ff
00
fe
02
01
01
02
00
fe
00
ff
fe
01
00
01
02
01
00
00
00
00
00
ff
ff
ff
01
00
00
02
00
fe
ff
ff
00
00
00
00
ff
00
ff
00
01
02
01
ff
00
ff
ff
01
00
02
03
00
00
00
00
00
00
00
00
00
00
02
01
01
00
01
00
fd
00
00
00
00
00
00
00
00
00
00
00
ff
00
ff
fe
02
ff
03
03
ff
ff
ff
01
00
ff
02
02
01
00
00
00
00
00
00
00
00
00
fe
fe
00
ff
ff
fd
00
00
fe
fe
fa
fc
fd
fc
ff
01
04
05
fd
fb
fd
fe
fe
00
01
07
06
00
ff
ff
01
00
00
00
01
00
01
00
ff
01
01
00
00
00
ff
00
00
02
00
00
00
00
fd
00
00
ff
00
00
00
fe
01
02
00
00
00
00
00
00
00
00
00
00
00
00
00
00
00
fe
00
01
01
01
01
00
01
00
01
00
fe
ff
ff
fc
fd
fd
fe
00
01
05
04
ff
ff
ff
ff
fd
fd
ff
fc
fc
00
ff
00
ff
ff
ff
00
00
00
00
02
02
02
01
00
ff
00
00
01
01
01
01
00
00
00
ff
00
01
00
ff
fe
fd
fe
fc
fe
ff
00
01
00
01
ff
ff
ff
fe
00
01
01
01
00
00
00
ff
ff
ff
00
01
02
01
01
01
00
01
00
00
00
00
00
01
01
00
01
ff
ff
ff
ff
ff
ff
ff
ff
00
ff
00
00
fe
ff
ff
fe
ff
ff
ff
00
00
ff
00
00
ff
01
01
00
00
00
02
02
02
00
01
ff
ff
00
01
01
02
01
ff
00
ff
00
01
00
ff
ff
00
fe
ff
ff
ff
00
00
00
00
00
00
00
00
00
ff
00
00
01
01
ff
02
02
01
00
00
00
00
00
00
00
00
00
01
02
00
00
fe
fe
fe
ff
00
01
02
02
01
00
00
01
00
00
00
00
00
00
00
00
00
00
00
ff
ff
fe
ff
00
00
00
01
01
00
ff
fd
fc
fd
fc
f9
fd
fb
01
00
ff
fe
fe
fe
fe
00
ff
00
01
01
02
01
ff
ff
00
ff
01
01
00
02
01
ff
00
00
ff
ff
ff
00
00
01
00
00
00
01
00
01
01
00
00
ff
ff
ff
00
00
00
00
00
00
00
00
00
00
00
02
01
02
01
ff
ff
01
ff
00
00
01
01
01
00
ff
ff
ff
ff
00
fe
fd
fe
fd
fb
fe
fc
ff
ff
fe
ff
ff
ff
01
01
00
01
00
ff
01
00
00
00
ff
ff
00
ff
fe
00
02
ff
00
03
01
02
ff
fe
02
00
fc
04
02
00
00
fc
fe
02
fe
f9
02
04
fe
02
fe
ff
01
fd
fc
03
00
ff
00
ff
ff
01
00
ff
00
01
01
ff
02
03
fd
01
02
fe
ff
ff
fd
00
01
fd
00
03
fd
fe
02
fe
fe
00
00
ff
fe
ff
00
ff
02
00
ff
01
00
fd
01
fe
fe
ff
ff
01
ff
00
00
00
00
00
00
02
ff
ff
01
01
fe
01
00
02
ff
fe
03
00
fd
01
03
01
00
ff
ff
02
ff
fe
02
ff
fe
00
00
00
00
00
00
00
00
00
ff
02
03
fd
01
03
00
ff
00
00
00
00
00
00
00
00
00
00
02
ff
ff
01
fe
fd
01
ff
ff
00
00
ff
01
01
01
02
01
01
00
00
00
00
00
00
00
00
00
fb
00
02
fa
fd
01
fb
fd
00
ff
fd
fc
02
00
fb
01
04
ff
02
fc
fb
04
ff
f9
03
05
fc
01
00
ff
01
01
ff
01
01
00
00
01
00
ff
02
01
fe
01
00
ff
03
03
fe
00
04
ff
fd
01
00
fe
fe
01
ff
fe
02
03
00
00
00
00
00
00
00
00
00
00
02
00
00
03
00
00
03
00
01
fd
01
03
fd
00
04
fd
fe
01
ff
fa
fb
02
fe
fa
03
03
fd
fa
ff
01
fb
ff
01
fc
01
00
fe
ff
ff
01
00
ff
02
00
01
02
01
01
ff
00
02
ff
fe
00
01
01
01
ff
ff
02
00
ff
00
ff
00
ff
01
01
ff
02
02
ff
00
ff
02
fe
ff
01
ff
00
01
ff
ff
ff
ff
ff
fd
00
00
fe
fc
fe
05
fa
ff
06
ff
ff
00
fd
fe
04
fa
fd
05
fc
ff
05
00
fe
00
fd
ff
02
00
02
02
ff
00
ff
ff
ff
00
00
00
00
01
ff
00
01
ff
00
02
00
ff
01
00
03
fd
ff
04
fd
fd
01
01
01
01
ff
00
02
00
ff
ff
fe
fe
00
ff
ff
01
ff
01
02
00
00
00
00
00
00
00
00
00
fc
fd
03
f9
fb
03
fc
fe
04
00
00
00
00
00
00
00
00
00
ff
ff
01
fd
ff
02
ff
01
02
ff
01
01
fd
00
ff
ff
ff
00
00
00
00
00
00
00
00
00
00
02
fe
fe
fe
fe
ff
fd
ff
00
02
00
fe
02
02
fc
03
02
ff
00
ff
fe
02
01
ff
02
01
fe
01
01
00
ff
00
00
01
ff
00
ff
00
01
00
00
00
01
02
00
ff
fd
01
f9
fc
04
fb
ff
02
01
02
01
00
01
00
01
00
00
00
00
00
00
00
00
00
00
00
ff
01
02
fe
00
03
00
ff
00
fe
fe
03
fa
fd
05
fd
ff
03
02
ff
fd
03
00
fd
03
02
ff
ff
fe
fe
fe
ff
fe
ff
00
fe
01
01
02
00
00
00
00
01
ff
02
03
00
fd
fd
fe
fd
fa
f9
02
00
00
00
00
01
01
00
00
ff
01
02
fd
fd
ff
00
fb
fb
01
01
01
04
00
01
00
03
03
ff
fe
ff
00
ff
ff
ff
ff
ff
fe
00
ff
fe
ff
fd
fd
fd
01
fd
ff
ff
01
02
01
ff
00
04
ff
00
00
07
03
00
01
02
04
02
00
00
01
00
00
01
03
02
00
00
ff
fe
ff
ff
ff
ff
ff
00
00
ff
fa
fb
fe
fe
f9
fa
00
01
ff
02
ff
01
ff
ff
02
02
01
02
01
00
02
02
03
00
00
00
00
00
00
00
00
00
00
01
01
fe
00
02
03
01
01
02
00
00
00
00
00
00
00
00
00
03
00
01
04
03
01
01
02
01
fc
00
03
fd
fb
fc
01
01
01
00
00
00
00
00
00
00
00
00
fe
ff
00
fb
00
01
ff
fe
00
00
01
01
01
fe
fe
01
fd
fe
ff
02
02
fd
fb
00
01
fb
fd
00
01
01
ff
00
00
00
ff
01
00
ff
ff
ff
fe
fd
fe
ff
ff
ff
ff
fe
04
01
00
02
05
04
01
02
01
fa
fc
ff
ff
fd
fc
00
00
00
00
00
00
00
00
00
ff
02
00
fb
fd
ff
fe
fd
fd
ff
fe
00
00
00
01
01
02
03
02
03
00
fe
fe
00
00
fd
fb
ff
01
00
01
ff
ff
01
fe
fd
00
01
01
fe
00
02
02
02
ff
01
00
01
fe
ff
03
ff
ff
fe
01
00
00
00
ff
ff
01
ff
02
04
03
03
02
00
00
ff
fd
fd
00
ff
01
00
ff
ff
01
02
01
00
01
00
00
01
00
00
02
01
ff
fe
00
01
02
03
fe
ff
fd
fd
fc
fb
fb
fb
fd
01
05
02
00
00
00
01
00
fe
fd
00
00
ff
ff
00
00
00
ff
ff
01
00
00
00
00
ff
00
00
ff
ff
ff
ff
ff
fd
fb
fc
00
01
04
00
01
01
00
fe
ff
ff
01
00
00
00
ff
01
ff
ff
fe
ff
01
03
00
00
00
00
00
00
00
00
00
fc
fb
f9
fe
00
fe
04
07
06
00
00
00
00
00
00
00
00
00
00
ff
00
01
01
fe
fe
00
02
00
00
01
00
00
01
01
02
00
00
00
00
00
00
00
00
00
00
02
04
04
fe
fe
ff
fc
ff
ff
03
04
03
ff
02
00
fe
fd
ff
03
02
04
00
01
01
01
ff
01
ff
fe
fe
00
ff
00
01
ff
00
ff
00
ff
ff
00
01
ff
01
00
00
01
00
00
ff
fd
ff
02
ff
02
01
01
00
fe
ff
00
fd
fe
00
00
00
00
00
00
00
00
00
ff
fc
fd
fd
00
02
04
03
01
fb
fa
fa
00
01
02
01
04
01
01
02
02
00
01
01
fe
fe
01
03
01
00
ff
ff
fe
fa
fa
fc
fc
fd
fc
fe
00
00
01
01
02
01
00
fd
02
fa
fc
fc
00
01
02
02
ff
02
00
fd
fe
fe
00
01
03
00
fe
fe
00
fd
00
00
04
02
00
03
fd
ff
ff
fe
00
02
ff
01
fe
fe
00
fe
ff
ff
01
fd
fc
fe
fc
ff
ff
01
01
ff
ff
fe
04
fe
fe
ff
fe
00
03
00
00
01
fc
00
00
01
03
02
00
01
00
fd
01
00
01
02
fe
ff
00
fe
fe
00
ff
00
01
fe
04
01
07
ff
fa
ff
fb
fd
01
03
ff
04
fe
fc
ff
fd
ff
01
00
00
02
fd
00
00
fe
02
00
00
00
00
00
00
00
00
00
00
00
fe
04
fd
fe
00
00
04
00
00
00
00
00
00
00
00
00
03
01
00
01
fd
ff
fe
fe
02
03
ff
fe
00
fd
ff
fe
00
01
00
00
00
00
00
00
00
00
00
00
ff
02
fe
00
01
01
02
01
01
02
01
00
fb
ff
ff
ff
01
02
03
ff
00
fd
00
fc
01
01
01
01
ff
02
fc
fc
fe
ff
00
02
00
00
00
ff
00
01
01
01
02
ff
ff
01
fd
ff
ff
00
04
ff
01
01
ff
ff
fe
ff
00
ff
00
00
00
00
00
00
00
00
00
00
03
fe
04
fd
fb
fd
ff
00
01
00
fd
03
fc
fd
fe
fe
01
01
ff
ff
fd
fd
01
fe
02
02
fe
00
01
00
00
01
01
02
00
01
00
00
02
01
ff
01
fe
ff
00
01
00
01
03
01
01
03
00
01
00
02
00
02
ff
fe
02
ff
01
00
00
ff
00
02
fe
ff
02
01
00
01
ff
fe
ff
ff
fe
00
ff
ff
ff
00
ff
ff
fe
ff
fe
01
00
fd
04
00
fd
04
01
ff
01
01
02
02
fd
fc
00
fd
fd
00
ff
01
ff
fc
fe
fe
fe
00
00
ff
ff
00
fe
fd
fe
fe
01
fe
00
03
ff
00
03
ff
ff
01
01
00
ff
03
02
ff
02
03
ff
02
01
00
00
02
00
ff
01
ff
ff
ff
ff
00
fe
fd
ff
ff
fe
00
00
00
00
00
00
00
00
00
00
ff
fc
02
fc
f9
02
fe
fb
00
00
00
00
00
00
00
00
00
ff
00
00
ff
fc
fe
ff
fe
00
ff
ff
ff
02
01
fe
04
01
fe
00
00
00
00
00
00
00
00
00
03
fe
fd
00
fe
fe
fd
fd
ff
01
fe
01
fe
01
04
00
04
04
00
01
03
fe
ff
04
fc
fe
01
01
01
ff
ff
03
01
01
01
00
00
00
01
ff
ff
00
ff
fe
fe
01
01
00
03
fe
fd
02
fe
fe
01
00
fe
00
02
00
ff
03
01
00
00
00
00
00
00
00
00
00
00
01
ff
02
03
01
02
03
02
02
ff
ff
03
fc
fb
02
fe
fe
fe
fc
00
fc
fe
02
fd
00
00
02
ff
00
02
ff
00
01
01
ff
00
ff
00
00
00
ff
00
00
fe
00
fe
ff
00
00
fe
00
01
ff
00
fe
00
02
00
fe
00
01
fe
fe
ff
01
fe
01
02
00
01
01
01
00
00
03
01
ff
00
fe
fe
01
ff
fe
01
00
fe
01
ff
fe
04
fe
fd
05
fe
fa
01
ff
fe
03
ff
ff
07
ff
fb
05
00
fc
03
01
00
03
01
fe
01
fe
ff
01
02
00
03
00
00
01
fe
00
00
ff
00
00
fe
ff
ff
ff
00
01
fd
00
02
fd
fc
02
01
fe
00
fe
fe
02
ff
fd
01
01
ff
01
01
00
03
01
ff
01
ff
ff
00
00
00
00
00
00
00
00
00
03
fd
ff
02
fc
fc
04
fd
fc
00
00
00
00
00
00
00
00
00
01
00
00
03
01
ff
02
fe
fe
ff
ff
fe
fe
ff
fe
01
00
ff
00
00
00
00
00
00
00
00
00
fe
ff
ff
fc
ff
ff
01
fe
ff
ff
ff
02
fd
ff
01
ff
ff
02
fe
ff
00
ff
01
02
01
01
01
01
ff
00
00
00
fe
01
00
ff
00
00
00
00
01
ff
01
01
00
02
fd
ff
03
fd
fb
04
fc
fc
01
ff
00
01
ff
fe
00
00
00
00
00
00
00
00
00
00
00
00
01
fd
fe
02
fe
fe
03
00
ff
02
ff
ff
06
ff
fd
05
fe
fd
01
02
02
ff
02
02
00
ff
02
00
ff
00
00
ff
ff
ff
00
01
ff
01
00
ff
00
00
00
00
fe
01
00
00
00
01
fe
02
01
fd
01
02
ff
02
02
ff
02
01
ff
00
04
05
ff
01
02
fc
00
ff
fe
00
00
ff
ff
02
ff
fe
02
ff
fd
01
00
fe
01
00
ff
01
00
fd
fc
02
ff
fe
02
fd
fc
01
fd
fd
00
fe
fe
02
fb
fd
fe
ff
01
ff
fd
02
ff
fc
01
ff
ff
00
ff
fe
00
fe
fe
01
ff
fe
00
02
01
02
00
ff
00
02
00
00
01
00
fe
03
00
fd
00
01
fe
02
01
fe
03
01
ff
ff
00
01
ff
fe
00
02
fe
02
00
00
00
00
00
00
00
00
00
00
fe
fe
02
fe
00
00
fa
fe
00
00
00
00
00
00
00
00
00
ff
ff
02
ff
fe
01
fe
ff
02
01
ff
ff
01
ff
00
01
00
00
00
00
00
00
00
00
00
00
00
00
00
fe
fd
fe
ff
fe
fe
00
00
02
03
ff
02
03
fd
00
02
00
05
04
00
02
03
fc
02
00
ff
00
ff
01
01
ff
02
00
ff
ff
ff
00
01
00
02
00
ff
00
00
fd
fc
ff
fc
fe
fd
f9
fc
01
02
ff
02
01
fe
02
02
fc
00
00
00
00
00
00
00
00
00
00
ff
fe
03
01
fe
03
00
fe
ff
fb
fb
ff
fc
fc
01
fc
ff
01
03
04
ff
03
02
ff
01
00
01
ff
00
01
fc
fe
ff
fd
fe
00
00
ff
00
ff
ff
00
fe
ff
fe
02
02
ff
00
ff
fd
00
fe
ff
01
01
fe
fc
ff
00
03
01
ff
fa
ff
01
fe
03
02
03
00
02
fe
ff
fe
fe
00
02
02
02
00
ff
fe
00
01
01
ff
00
ff
05
05
ff
fa
fb
f9
ff
02
00
fe
02
fd
ff
01
fd
fd
ff
fd
02
ff
fe
fe
fe
ff
00
03
02
03
ff
00
fe
ff
01
00
02
01
01
01
00
01
01
01
01
01
02
00
00
ff
01
01
ff
ff
00
00
ff
ff
02
fe
fe
ff
01
02
01
03
fe
00
fe
fe
01
01
01
02
00
00
00
00
00
00
00
00
00
01
03
fe
fe
00
fc
ff
03
ff
00
00
00
00
00
00
00
00
00
02
fd
00
ff
fd
02
ff
02
03
00
01
01
fd
ff
ff
fe
ff
fe
00
00
00
00
00
00
00
00
00
fa
00
01
02
04
fe
00
fe
fa
fe
fb
02
01
fe
03
00
00
03
00
fc
00
01
00
01
01
01
00
fe
00
03
ff
fe
fe
00
ff
01
02
02
00
00
00
00
fe
ff
ff
04
07
03
02
00
fa
fb
ff
fc
ff
01
02
fe
fd
ff
02
02
00
00
00
00
00
00
00
00
00
00
00
02
04
00
ff
fe
01
00
01
00
03
fe
00
01
fd
fc
fe
fd
02
fc
fe
04
fd
01
01
ff
ff
00
fe
fd
00
ff
ff
fd
ff
00
01
02
01
00
01
00
fe
ff
ff
02
ff
02
01
fe
fd
02
01
ff
00
02
02
fd
fd
00
01
00
00
02
03
01
00
00
fe
ff
ff
ff
fe
02
00
00
ff
ff
ff
01
fe
00
00
01
00
00
01
01
ff
ff
ff
fc
02
02
fd
fd
02
00
ff
fe
ff
01
fb
fd
05
01
fd
01
01
02
fe
ff
01
00
ff
ff
00
fd
01
01
00
fc
00
02
ff
fd
00
fe
fd
ff
ff
fe
00
00
00
fd
fe
02
00
fc
00
03
01
ff
ff
01
01
ff
fe
ff
01
01
00
fe
03
00
fd
fe
01
01
fe
fe
00
00
00
00
00
00
00
00
00
fd
03
04
f9
fe
07
01
fd
ff
00
00
00
00
00
00
00
00
00
00
03
01
fa
ff
01
00
fc
ff
fd
ff
03
ff
fd
fe
02
00
fd
00
00
00
00
00
00
00
00
00
01
00
00
00
00
01
fd
03
01
00
fd
fe
02
01
fc
00
04
ff
01
01
02
02
00
ff
ff
00
ff
01
ff
00
00
00
ff
02
01
01
01
01
00
00
ff
00
00
00
00
01
fe
00
01
ff
fe
01
01
fc
ff
ff
03
00
fd
ff
01
ff
00
00
00
00
00
00
00
00
00
00
00
fe
03
01
fe
00
02
01
00
fd
ff
03
00
fb
01
01
ff
fe
02
05
02
ff
fd
ff
fd
fd
fe
01
01
fb
01
01
fe
ff
00
00
fd
01
04
ff
fe
04
03
ff
ff
01
00
01
ff
04
02
fe
fe
ff
00
00
01
02
02
01
fe
fe
fe
ff
01
01
05
04
01
fd
fa
fc
00
00
00
05
02
00
00
fd
fd
ff
ff
00
ff
fe
ff
ff
00
ff
00
fe
ff
ff
01
01
00
01
03
02
01
01
fe
ff
fe
01
01
02
00
00
00
03
00
01
00
fd
fe
00
01
00
04
02
ff
00
fd
01
fc
fd
fe
fd
fd
ff
01
01
00
ff
ff
00
ff
ff
02
01
03
01
00
ff
01
02
02
00
fd
00
ff
01
01
01
02
01
ff
00
fe
ff
00
00
00
00
00
00
00
00
00
fd
00
01
ff
fe
00
07
05
ff
00
00
00
00
00
00
00
00
00
00
00
00
03
02
01
01
fd
fb
02
00
01
03
04
ff
01
ff
fe
00
00
00
00
00
00
00
00
00
ff
ff
fe
fe
fd
fc
01
00
01
ff
00
02
04
02
03
fc
fb
fb
00
00
02
03
02
00
fd
f9
fc
00
00
00
ff
02
03
00
ff
fd
ff
fe
ff
fe
fe
ff
00
00
ff
03
02
00
ff
00
fe
00
fe
ff
ff
00
01
01
01
01
fb
fe
03
00
00
00
00
00
00
00
00
00
ff
00
02
fe
00
04
00
01
fd
01
02
00
01
02
fe
04
01
01
01
ff
02
01
00
fe
fa
fa
fc
fd
fc
fb
ff
ff
fd
01
fe
fd
03
03
04
04
03
00
01
00
00

// conv_layers.2  shape=[64, 64, 3, 3]  bits=4
// scale per output channel: [0.04385299235582352, 0.02684030309319496, 0.027483908459544182, 0.03737526014447212, 0.031021399423480034, 0.03381980210542679, 0.039146412163972855, 0.03046766109764576, 0.035989902913570404, 0.030370591208338737, 0.030595047399401665, 0.029677463695406914, 0.03785271570086479, 0.030107658356428146, 0.027926336973905563, 0.0336528979241848, 0.0493524931371212, 0.028286514803767204, 0.08349434286355972, 0.025849470868706703, 0.027778122574090958, 0.04141327366232872, 0.03204531595110893, 0.022627096623182297, 0.035966601222753525, 0.04732467606663704, 0.034578267484903336, 0.031726811081171036, 0.05462813749909401, 0.02353578619658947, 0.027289630845189095, 0.026369303464889526, 0.025834234431385994, 0.028143739327788353, 0.030340436846017838, 0.028254881501197815, 0.02302219159901142, 0.036684028804302216, 0.029959559440612793, 0.02796291932463646, 0.02903999201953411, 0.03956570476293564, 0.040668729692697525, 0.033061955124139786, 0.030523693189024925, 0.026539361104369164, 0.0358722098171711, 0.03230069950222969, 0.05516410246491432, 0.03498538210988045, 0.03879295662045479, 0.04173410311341286, 0.03858979791402817, 0.04889700561761856, 0.029669465497136116, 0.035633012652397156, 0.026857847347855568, 0.029507344588637352, 0.031169116497039795, 0.03260677307844162, 0.03024424985051155, 0.03650953620672226, 0.029289964586496353, 0.03329233452677727]
00
00
ff
ff
03
00
fd
01
01
00
ff
01
fe
fe
01
ff
ff
03
ff
00
fe
fe
00
00
ff
03
00
01
01
03
00
01
01
ff
00
ff
fe
03
02
ff
fe
ff
00
fe
ff
ff
fe
ff
fd
fb
ff
00
ff
00
00
00
00
02
fe
fd
02
00
00
01
00
01
00
02
ff
02
04
01
fe
fe
00
00
ff
00
00
ff
00
ff
fd
01
01
fe
00
03
00
fd
02
01
01
ff
fe
ff
01
fe
ff
00
01
01
01
03
ff
01
01
01
ff
00
00
00
00
00
00
01
ff
ff
01
00
02
02
01
00
00
fe
01
ff
ff
01
ff
01
02
ff
02
ff
fe
02
fe
fd
01
fc
fe
02
01
00
ff
fe
fd
fc
ff
ff
01
00
fd
ff
01
00
00
01
ff
ff
01
02
01
01
01
ff
00
ff
00
03
04
02
02
07
ff
ff
01
ff
ff
ff
00
00
01
fe
00
00
00
00
ff
01
fe
fe
01
ff
ff
01
02
06
fd
00
01
ff
fb
fc
fd
02
fe
ff
03
00
01
01
ff
01
00
fd
ff
ff
ff
ff
00
01
01
00
fe
fe
00
fc
fe
00
fe
01
fd
fe
ff
ff
fe
01
03
01
00
00
fe
02
fd
fd
00
01
ff
00
02
fc
02
02
01
01
00
00
ff
fe
fe
ff
ff
fe
fe
00
02
03
02
fe
00
ff
01
00
01
02
ff
fd
fc
00
00
00
fe
00
01
00
01
fe
03
02
02
ff
01
01
00
ff
ff
ff
ff
ff
ff
fe
ff
00
00
00
00
00
02
00
02
01
fe
ff
01
fe
01
00
00
00
00
00
00
ff
01
02
03
fd
02
02
ff
ff
03
01
fe
01
01
01
ff
03
01
fe
01
ff
fe
00
fe
fe
01
fe
ff
00
fe
fe
ff
ff
ff
fd
fb
fd
01
fc
fe
02
01
02
01
00
fe
fd
01
fe
fe
fe
fd
fd
00
fc
ff
01
00
02
00
ff
00
01
01
00
00
ff
00
01
03
00
ff
fe
02
00
ff
01
00
fe
00
03
07
00
00
02
ff
01
02
02
fd
ff
02
02
fe
ff
01
ff
ff
00
00
fe
00
ff
fe
01
00
02
ff
ff
00
00
00
00
02
01
02
01
ff
00
03
04
fe
02
02
ff
02
00
fe
01
00
00
01
ff
ff
01
01
ff
00
00
fd
ff
00
fe
ff
00
00
00
00
ff
fe
ff
fe
02
ff
00
00
fd
01
ff
01
00
01
ff
fe
01
ff
fd
fe
fd
ff
fe
fe
ff
ff
fe
ff
01
fe
fe
01
03
01
fd
fd
ff
00
01
ff
ff
ff
02
00
03
01
01
00
01
ff
fe
ff
fe
fc
00
00
00
02
00
02
04
ff
00
00
fd
ff
00
fe
fe
00
00
ff
01
01
00
02
fe
fc
ff
fe
fb
fd
01
00
01
00
fe
00
00
01
01
03
01
01
fe
ff
ff
fe
ff
fd
fe
01
fe
03
04
00
01
00
00
ff
fe
00
ff
03
ff
fb
ff
ff
ff
01
ff
04
02
00
01
00
00
fe
fd
ff
ff
fe
fe
01
00
01
00
01
ff
02
01
01
02
00
ff
00
03
02
03
05
ff
00
ff
00
00
ff
01
fc
fc
ff
ff
01
02
00
00
01
fb
fc
fc
fe
02
04
fd
02
04
00
00
00
fe
fe
fd
01
fc
00
00
fd
fe
01
ff
03
ff
00
01
fd
00
ff
02
02
02
01
02
05
fe
00
03
fc
fe
02
fb
fe
03
00
fe
fd
ff
fd
fd
02
01
00
fe
fe
fe
ff
fe
03
01
00
ff
fe
fb
fe
fe
02
03
fe
01
03
fe
ff
04
00
01
01
03
01
fd
00
fd
fe
fd
ff
ff
fd
01
00
ff
00
fe
ff
ff
ff
00
02
01
02
00
ff
06
ff
fb
02
fc
fc
ff
01
ff
fd
fe
ff
01
01
00
02
00
fc
fc
fe
ff
02
02
fd
ff
ff
00
04
01
fe
02
01
ff
ff
fd
fe
ff
fd
fc
00
01
03
fc
fd
04
fd
04
04
02
02
01
fa
fb
fe
fb
fb
00
fd
fe
ff
ff
fe
ff
00
02
04
01
00
01
01
00
ff
03
06
04
01
02
01
fc
ff
fe
fc
fe
fd
fe
fe
00
fd
fd
fd
fc
fc
00
07
03
01
fe
00
03
00
02
ff
01
00
fd
02
03
03
01
01
02
02
ff
fe
fb
fe
ff
00
00
00
03
04
04
02
ff
00
fe
ff
fe
fb
fc
fd
00
fe
fd
02
00
00
00
01
ff
fe
01
ff
fb
00
00
01
02
00
00
fd
fe
ff
fe
00
fe
ff
01
00
00
fe
01
00
fd
03
00
00
fb
00
04
fb
fb
ff
fd
fe
fe
00
ff
ff
ff
02
01
00
03
01
02
03
04
03
03
01
fd
ff
ff
ff
01
05
01
02
02
02
02
ff
02
04
03
ff
01
fe
00
00
fe
fc
ff
fd
fd
ff
00
00
ff
01
fd
00
00
01
fd
fe
02
01
01
fe
fd
fe
ff
00
01
05
02
00
00
ff
fd
01
ff
ff
04
02
03
fd
fc
ff
00
ff
fc
03
01
00
ff
fe
02
00
00
03
02
03
05
fd
ff
00
00
00
01
ff
ff
01
00
fe
02
fc
00
01
ff
ff
ff
fe
fb
01
fe
02
07
fd
01
fe
00
ff
fd
01
01
01
fe
fe
fe
01
00
01
04
ff
fd
ff
fe
fe
01
00
00
fe
04
01
ff
fd
fc
fb
fb
fc
fc
fd
fd
fe
fd
ff
fd
fe
01
fc
00
01
00
00
03
01
02
ff
01
01
fc
00
ff
ff
00
01
fd
ff
00
02
01
01
03
ff
00
04
01
02
00
00
02
00
fe
00
05
fe
01
02
fd
00
00
fd
fb
ff
00
00
05
03
02
ff
02
04
07
02
03
02
00
fe
fe
fc
00
01
fb
fe
fe
fe
ff
fe
fd
fe
ff
00
ff
fb
03
00
fe
00
fe
fd
00
01
fe
fe
00
03
03
fe
fc
01
04
02
ff
fe
02
02
ff
00
00
06
04
01
01
02
ff
02
03
01
00
01
00
fe
fd
02
05
02
00
01
01
fd
03
02
ff
00
fc
04
01
01
01
ff
fd
fe
fd
ff
04
ff
01
05
02
00
01
00
00
00
01
05
02
02
00
03
00
fc
02
05
fe
00
04
00
ff
02
05
fd
05
04
ff
02
01
00
fd
ff
fd
ff
03
02
02
ff
00
01
01
fe
03
00
ff
fd
00
00
00
00
fe
fe
fd
fe
fd
00
02
01
01
03
01
01
ff
02
ff
02
00
fa
01
01
00
00
03
02
00
fe
ff
02
fe
00
04
ff
01
ff
01
fe
04
ff
fe
ff
00
00
01
01
03
01
ff
ff
00
ff
ff
fd
ff
02
ff
fc
fd
fa
fd
fc
fe
01
02
fb
fe
03
fe
fc
fe
00
ff
00
01
00
01
02
01
01
02
01
00
00
01
ff
fe
fe
fe
00
01
00
ff
00
00
fc
fd
ff
fe
ff
01
00
00
01
01
fe
fe
02
00
fe
02
02
00
01
00
fc
01
fe
ff
03
01
04
03
04
ff
00
fe
00
05
01
02
04
04
01
04
00
02
01
00
fe
01
ff
00
fd
03
07
05
01
01
ff
02
03
04
01
ff
00
03
01
fe
02
07
01
01
00
06
01
01
01
04
02
02
03
02
02
02
fe
03
01
fe
ff
fe
ff
fe
02
00
03
00
ff
02
01
ff
01
ff
00
00
01
03
ff
ff
fd
fc
03
02
ff
ff
03
01
00
ff
02
fe
ff
fd
fe
fe
03
03
ff
00
01
01
01
ff
00
02
00
00
02
00
ff
02
03
01
00
00
ff
02
00
ff
01
02
03
02
ff
fd
ff
02
00
00
ff
fe
ff
fc
fe
ff
01
ff
fe
fe
fd
00
04
ff
01
04
00
00
00
01
ff
02
03
00
ff
00
00
01
00
05
00
fe
06
01
fd
fd
01
04
01
01
00
00
01
ff
02
01
00
fd
ff
fe
fb
fb
fd
fc
fd
fd
00
fe
ff
00
fb
fb
00
02
05
01
ff
04
fe
fe
fe
00
fe
00
00
fe
00
00
fe
ff
fd
01
02
00
02
01
02
03
04
00
01
02
00
fd
fd
02
ff
00
02
00
fe
fe
01
02
fd
fe
02
02
03
fe
01
ff
00
00
02
05
01
02
01
03
fe
00
03
ff
fd
01
fe
fe
07
00
00
05
03
fe
04
fe
fe
01
fe
fd
ff
ff
00
01
02
02
ff
02
ff
00
00
fd
02
00
ff
ff
02
03
00
01
05
00
01
02
fd
00
01
ff
00
01
00
03
fd
03
01
03
00
03
00
00
ff
fe
05
02
01
04
fe
ff
00
02
ff
05
00
fd
ff
fe
fe
02
04
ff
07
01
00
01
03
ff
fe
00
01
00
fe
01
fe
fe
03
01
fe
fe
fe
01
00
00
00
00
00
ff
00
fe
02
03
01
fe
01
fe
fc
fe
01
00
fe
02
01
fd
03
ff
fc
00
ff
00
fe
01
00
fd
01
ff
00
00
03
fe
00
01
fd
fe
fe
fe
fe
02
f9
fd
02
fd
fc
02
ff
ff
00
fe
01
01
00
04
02
01
01
00
ff
ff
00
00
ff
00
fe
fd
00
fe
fd
00
01
fe
02
fe
ff
01
ff
fe
ff
fe
fc
fc
01
fc
00
fd
fe
ff
00
01
fd
03
03
ff
03
01
01
02
01
02
ff
ff
fe
02
01
00
fe
ff
fd
ff
ff
01
fd
fe
00
ff
fd
ff
fe
02
02
fe
00
01
00
ff
00
fe
fc
00
01
ff
fe
ff
02
01
00
00
02
02
00
02
02
ff
00
01
ff
01
ff
00
00
ff
00
ff
00
fe
fe
03
00
ff
ff
fd
ff
02
02
fe
02
02
fe
01
ff
ff
03
00
fb
01
02
fd
ff
00
03
fe
ff
02
ff
ff
01
fe
ff
ff
00
ff
00
ff
fe
fd
02
fe
fe
00
ff
ff
02
03
00
fd
01
02
02
02
03
00
01
04
01
fc
02
00
ff
ff
ff
00
00
ff
02
01
ff
fc
03
fe
fd
01
02
03
03
ff
02
02
ff
00
00
ff
00
02
fe
fe
03
ff
00
02
fe
fc
ff
ff
03
03
ff
fe
00
00
fe
fe
ff
03
01
02
01
00
02
00
fe
fb
ff
ff
00
01
01
00
01
01
02
01
fe
ff
ff
fe
01
00
00
fd
fe
00
fb
fe
ff
00
00
00
01
00
fd
ff
fe
fb
03
fe
fe
fc
fe
01
fd
01
01
ff
00
ff
01
03
02
01
fe
ff
02
00
ff
ff
fd
fe
01
ff
00
01
ff
fe
02
fe
ff
00
00
01
00
00
01
00
00
fc
02
fe
fd
03
ff
01
02
fe
00
00
02
ff
00
03
02
fd
ff
02
01
fd
00
ff
fb
fe
ff
fc
fe
00
00
fe
fe
ff
ff
fe
fd
01
ff
ff
01
02
ff
02
00
00
01
00
00
02
ff
00
00
01
02
01
ff
ff
00
fe
00
01
fd
01
05
01
fe
04
01
fd
01
01
00
01
03
00
01
00
00
01
fe
00
01
fe
00
01
fe
03
00
00
fd
fe
fe
fe
ff
01
ff
01
ff
fd
ff
fd
ff
00
01
02
00
03
ff
fc
ff
fe
fe
ff
00
ff
01
fe
fd
00
00
fe
02
01
00
ff
01
02
ff
00
01
ff
00
01
ff
fc
fe
01
fe
fd
00
ff
ff
02
01
fd
02
ff
00
00
fc
00
fd
fe
00
fd
fd
ff
00
00
02
00
fe
01
ff
fe
00
fd
ff
00
fd
02
01
00
02
00
02
01
02
fe
01
02
00
01
fe
02
01
ff
01
03
ff
fd
02
02
fb
ff
02
00
00
ff
ff
fd
fe
ff
ff
fd
01
03
03
ff
fe
01
fd
fe
01
01
00
ff
01
03
fe
02
03
01
00
ff
fe
ff
ff
00
02
02
00
fe
fe
02
ff
03
00
fe
00
ff
ff
ff
03
fd
ff
04
fb
fc
02
ff
ff
ff
02
fd
fe
02
fe
fe
04
01
fe
01
ff
00
03
02
02
fe
fb
ff
ff
fc
fe
ff
fd
fd
01
fd
fe
00
fc
ff
ff
fd
fe
ff
01
03
00
00
ff
02
01
fc
ff
fe
00
fd
ff
ff
ff
00
ff
00
fd
fd
fd
fb
01
fc
fe
02
02
02
02
ff
ff
02
fe
ff
02
01
01
00
fe
01
01
01
ff
ff
fe
00
02
01
02
02
fd
fd
fe
ff
fe
ff
ff
fd
fc
ff
fc
ff
ff
01
ff
00
02
01
03
00
02
03
01
fd
ff
ff
01
00
fe
fc
02
02
fc
ff
02
03
ff
00
ff
01
04
fc
03
02
fe
00
00
fe
fd
fd
01
fe
00
01
01
00
fd
fe
03
01
ff
01
01
01
01
00
fe
00
05
00
fe
ff
02
fd
fd
01
01
ff
01
ff
fc
fd
fe
ff
00
fd
00
ff
fe
fc
00
fd
01
05
01
ff
01
fe
01
ff
fb
ff
ff
ff
01
01
00
00
02
04
00
03
01
02
01
fc
00
fe
fa
fd
01
01
02
00
ff
00
fe
ff
01
00
fe
fd
fd
fc
00
ff
03
01
02
fe
00
04
03
fd
02
fe
fc
01
00
00
00
01
ff
03
03
03
fe
01
02
00
01
03
fe
01
03
01
ff
ff
ff
fe
04
ff
ff
02
01
01
00
fc
ff
02
00
00
01
01
fe
fc
01
fd
fc
ff
fc
fd
fd
fe
00
fc
fe
01
00
03
02
01
ff
fb
01
fd
fa
ff
fe
fc
fe
fc
ff
fe
fc
00
fd
fc
00
ff
ff
00
fc
02
02
fe
03
02
01
00
ff
ff
01
00
00
ff
ff
ff
fc
fd
fd
fe
ff
02
01
01
02
01
ff
01
fe
02
00
fc
01
00
02
01
00
02
ff
00
00
01
fd
fc
fe
fc
fd
00
00
ff
fe
03
fa
fb
01
fe
00
04
01
04
00
00
00
00
01
02
00
02
00
01
ff
01
ff
00
01
00
00
00
fc
fb
fe
fe
02
ff
03
06
fc
02
01
01
01
03
03
00
00
01
00
01
fe
03
fe
fe
ff
00
00
00
00
02
fe
00
02
fe
fc
00
04
ff
ff
01
fd
00
00
ff
02
fe
00
01
fc
fd
00
fe
fd
04
ff
fb
fe
00
fc
00
03
fd
00
01
ff
00
01
00
ff
ff
00
fe
04
01
fe
00
02
01
ff
00
03
fb
ff
fe
fa
ff
02
00
02
00
02
ff
fe
02
ff
02
02
01
00
fe
01
01
fe
fc
00
00
fe
fc
00
00
01
00
fe
01
00
ff
ff
fd
00
ff
fd
fe
ff
ff
00
04
00
01
02
01
00
fe
01
fb
fb
ff
01
01
01
00
01
fe
fd
02
00
01
00
fd
02
01
00
07
00
00
ff
02
ff
fc
00
02
02
00
fd
fe
fe
fe
fd
01
fe
fe
06
02
fd
ff
ff
fd
00
02
fe
02
01
fd
04
00
00
04
02
00
03
ff
01
00
00
fe
ff
02
01
00
00
00
fe
00
fc
02
02
fe
06
fc
fb
fe
fe
ff
00
01
fe
00
01
00
00
fd
ff
fe
fb
01
fc
00
ff
00
fe
ff
ff
fd
fe
ff
fc
fe
02
ff
fd
02
ff
00
05
01
03
00
fe
00
02
fc
01
01
00
01
01
ff
02
00
fd
ff
fd
03
ff
fe
01
01
00
02
02
01
fe
fe
01
fe
fd
ff
fe
fc
fe
ff
00
05
01
02
02
ff
01
02
03
ff
ff
ff
ff
00
00
00
00
fd
fd
fe
ff
ff
00
02
01
00
00
01
02
00
ff
01
ff
ff
00
02
00
fe
ff
ff
ff
00
fe
ff
03
00
00
03
ff
fe
00
fe
ff
00
ff
01
03
02
01
04
04
ff
fc
fd
fe
ff
ff
01
02
00
fe
02
01
ff
01
02
fd
01
00
fe
01
ff
00
ff
00
ff
ff
02
fe
01
02
00
fe
fe
00
00
fe
ff
00
00
02
00
fe
02
01
00
04
02
00
00
00
ff
ff
02
01
01
fd
ff
01
fc
02
03
fc
00
00
01
00
02
ff
ff
01
ff
00
03
ff
00
fe
00
00
00
00
fc
01
00
fe
fe
fe
00
02
ff
01
02
02
04
00
fd
fd
fe
fc
fa
fc
fe
01
fe
00
ff
fd
fd
f9
fe
fa
fe
fd
02
00
fe
01
fe
00
00
ff
04
00
fe
03
fd
fe
01
02
fc
02
02
fe
01
03
ff
01
fd
ff
01
01
01
03
01
03
06
fd
00
00
ff
fe
01
ff
ff
01
ff
00
01
fe
ff
ff
00
00
ff
ff
01
00
ff
fe
00
00
ff
fe
00
fe
05
fe
fd
05
fe
fd
04
ff
00
04
fd
ff
fe
01
fe
fe
00
fe
fd
03
fe
00
02
00
05
02
00
fe
03
02
fe
00
01
fb
00
fe
fb
01
00
00
00
00
03
00
01
01
fe
ff
00
ff
00
ff
01
01
ff
ff
fc
00
fd
fc
fe
02
ff
fe
fe
00
ff
fe
01
03
ff
02
03
fe
00
00
fd
fe
fe
01
00
ff
01
02
00
fe
fe
ff
01
00
fe
01
ff
ff
02
00
02
fd
fd
03
01
fe
01
02
ff
02
ff
ff
ff
01
ff
ff
02
ff
fd
ff
fe
03
ff
ff
03
01
02
02
02
ff
03
01
02
04
00
05
02
fe
01
ff
00
00
fe
01
fd
fc
03
01
fe
01
00
01
00
02
00
01
ff
ff
01
fe
fe
01
00
ff
04
01
02
01
fe
04
00
fe
02
01
03
01
01
00
00
fd
fc
fd
fe
00
ff
ff
00
00
fe
02
01
01
ff
fe
ff
fe
01
00
ff
00
ff
ff
ff
02
ff
01
03
ff
01
ff
ff
00
00
ff
00
ff
ff
00
ff
fd
fe
fe
00
fe
00
02
fe
00
01
00
00
01
fd
02
02
ff
01
02
02
02
01
00
02
02
00
01
02
ff
01
02
02
00
ff
02
00
00
ff
00
fe
00
00
fe
fe
01
01
02
ff
02
fe
03
01
fe
01
ff
01
01
02
00
fe
ff
fe
fe
fe
fe
ff
fe
00
fe
00
01
fd
fe
fc
ff
ff
04
03
04
06
01
00
01
03
01
ff
00
fd
fe
fe
fd
00
00
fe
fd
ff
fd
fe
01
00
01
00
ff
ff
01
02
02
00
fe
00
fe
fe
fd
00
fe
ff
02
02
01
fd
fd
fa
ff
fe
fe
01
01
01
00
01
00
00
01
02
01
ff
fe
00
00
02
00
ff
00
00
ff
00
fe
01
02
ff
ff
ff
fe
fe
ff
fe
fe
00
fe
ff
ff
00
ff
01
00
00
03
01
ff
ff
fe
fd
ff
01
01
fe
00
00
00
02
01
02
ff
00
ff
ff
ff
00
01
00
01
ff
00
ff
ff
ff
00
01
01
00
00
01
ff
00
01
ff
01
00
ff
01
02
fe
00
01
ff
01
02
02
00
ff
01
ff
fe
ff
02
fe
01
ff
fd
ff
00
fd
02
fe
00
00
02
01
fe
02
00
01
fe
ff
fe
fd
00
02
00
04
07
ff
00
01
00
00
ff
00
ff
fd
01
ff
01
fe
fc
ff
fe
fc
fd
00
ff
ff
00
ff
00
04
03
02
ff
01
03
00
02
03
02
02
02
01
fe
fe
01
01
00
ff
ff
fc
00
00
ff
01
00
ff
fe
ff
00
00
01
fe
00
00
ff
00
ff
02
ff
01
01
fe
fe
00
ff
fb
00
ff
ff
ff
01
01
00
ff
01
00
ff
fe
fe
fe
fe
fc
00
ff
ff
00
fd
ff
01
fd
ff
ff
ff
01
fe
ff
00
ff
fe
01
00
01
00
ff
fe
00
00
01
ff
ff
ff
ff
fe
ff
00
ff
ff
01
00
00
fe
ff
02
ff
00
ff
02
fe
00
02
fc
fd
ff
01
02
01
02
01
01
00
01
02
fe
fd
fe
00
00
01
fe
ff
fe
00
fd
ff
ff
ff
01
ff
01
fe
00
00
00
fe
00
00
ff
ff
00
01
ff
fd
00
00
fe
00
ff
01
06
01
02
ff
00
00
ff
00
00
01
00
01
00
00
ff
01
01
ff
02
00
00
ff
00
ff
00
fe
00
01
02
03
fe
ff
ff
02
01
01
fd
ff
00
fd
fd
fe
02
03
00
00
03
fd
02
01
ff
ff
01
00
01
ff
00
fe
00
ff
01
fe
ff
fe
fd
00
fe
00
ff
00
01
fe
04
01
fd
01
00
00
ff
00
ff
02
01
ff
fe
00
fe
ff
ff
fe
fe
fe
00
fe
fb
01
fe
fe
03
01
02
05
00
01
ff
02
fe
04
00
fd
02
fe
ff
fe
fd
fc
02
fd
fd
00
03
01
02
01
00
02
00
ff
02
01
01
02
fe
fe
ff
fe
fd
ff
fe
fe
00
ff
01
00
02
00
01
01
01
01
02
fe
ff
f9
fc
02
fd
03
04
01
01
00
fe
02
03
03
03
04
01
00
02
01
02
02
ff
03
fe
ff
fe
00
ff
fd
fd
fc
fd
fe
03
ff
ff
fa
fc
00
fd
04
01
fe
fe
fd
fe
fb
fc
fe
fd
00
02
ff
fe
fe
fe
fd
01
01
01
01
ff
03
00
fc
fd
04
02
fd
fe
fe
02
00
02
01
03
03
00
fe
ff
ff
04
01
01
fd
fe
ff
02
fd
fe
04
00
fd
03
fe
fe
02
01
fe
ff
01
01
03
01
ff
fe
fe
02
fd
fd
fe
00
ff
fe
01
fe
fd
00
fd
ff
ff
00
fe
02
04
02
01
00
03
fb
fe
fe
01
03
ff
01
fd
fe
fe
fe
fd
fc
00
ff
04
fe
fe
ff
fe
fc
fe
ff
01
fb
fc
fc
fc
02
04
02
ff
00
ff
ff
fe
fd
00
ff
fd
ff
01
fe
00
00
00
fe
ff
ff
fd
fd
01
ff
00
00
ff
fe
00
00
ff
01
03
02
00
ff
01
00
fc
fe
fe
fc
01
00
fe
fe
00
fe
fc
fe
ff
03
ff
01
00
fd
ff
02
00
00
fe
03
00
00
02
00
ff
01
01
04
00
03
00
01
00
ff
ff
ff
02
00
00
fe
02
02
01
fd
00
00
fd
00
ff
fe
fe
01
fd
fa
ff
ff
03
03
ff
fd
00
fe
fd
fd
ff
04
04
fe
00
04
00
fe
01
fe
00
ff
ff
00
00
00
00
fe
fc
01
ff
00
01
01
01
fd
00
fe
fe
ff
fe
fe
ff
01
01
00
01
01
00
01
00
fd
01
01
ff
05
02
00
fe
fd
fe
ff
01
01
01
05
05
02
ff
00
00
00
fe
00
fe
01
03
01
02
fe
fb
00
fe
02
05
fc
fe
fb
fe
fd
fe
00
00
05
01
ff
02
fe
00
01
fd
01
ff
04
01
03
01
01
fe
ff
fd
01
ff
00
02
ff
ff
00
ff
ff
00
02
fb
f9
00
ff
00
fe
00
fe
02
fe
fe
ff
fd
01
01
01
03
fd
fd
fe
ff
ff
fd
07
00
00
fd
ff
02
ff
03
05
02
03
00
fe
ff
03
ff
fd
fc
fe
01
ff
ff
fc
fd
01
01
ff
01
fe
fe
fe
fc
fd
ff
fe
00
fe
ff
00
03
00
01
01
01
ff
03
04
02
03
04
fe
00
fe
00
ff
03
04
00
02
ff
03
01
01
ff
00
00
fd
fe
ff
fc
00
00
00
03
fb
01
03
03
03
04
00
03
00
01
00
00
04
00
fc
02
01
fc
00
01
04
01
fe
00
02
01
03
fc
02
04
03
00
01
ff
00
ff
01
ff
00
fe
00
01
06
02
04
fe
ff
ff
fe
ff
fe
ff
fc
00
fe
00
ff
06
ff
ff
02
01
02
01
00
fd
fd
00
00
01
fd
01
00
ff
00
ff
00
ff
fd
fc
fd
fe
01
00
fc
01
00
00
01
00
fe
01
00
01
01
00
fe
04
02
fe
fe
00
ff
fe
ff
ff
ff
00
02
02
fe
00
04
01
01
02
01
01
01
03
ff
00
02
04
03
fe
fe
01
ff
00
00
ff
fe
00
01
03
01
01
00
01
02
00
00
01
02
03
03
03
01
02
00
ff
fe
ff
00
00
fc
00
ff
fc
ff
ff
fe
fd
fe
fe
02
00
ff
00
02
01
ff
fd
00
04
01
ff
ff
02
ff
01
02
00
00
ff
ff
ff
ff
fe
03
05
01
00
02
01
00
ff
ff
ff
01
01
fe
ff
00
fe
fe
ff
fe
00
02
fa
fb
fd
01
02
03
ff
ff
ff
ff
fe
ff
01
01
01
00
00
01
ff
ff
01
ff
ff
ff
01
fe
fd
00
01
fd
fe
fe
fe
fe
00
00
fd
fe
fd
fc
ff
fe
fe
ff
ff
00
00
fe
04
01
00
00
01
ff
01
01
01
fd
fe
ff
00
fe
01
01
fd
fe
02
ff
fd
ff
02
02
fe
fe
fd
fe
fe
fc
00
00
ff
ff
ff
00
fe
00
03
00
ff
fd
ff
fd
fc
00
fd
ff
ff
ff
00
fe
fe
fe
01
ff
fe
01
fd
fd
00
ff
fb
00
00
fc
01
03
01
ff
01
00
01
ff
ff
00
00
02
02
01
00
01
01
02
00
fe
ff
02
02
01
01
00
02
fe
ff
02
fd
fa
fb
03
01
ff
ff
fe
02
01
02
00
ff
03
01
01
01
02
03
01
00
02
00
01
ff
fd
fe
03
02
ff
01
00
01
01
00
fe
02
00
ff
ff
fe
fd
01
00
fe
fe
00
01
ff
02
02
01
02
04
ff
fe
ff
00
00
fe
02
00
02
ff
ff
ff
fe
01
fe
02
ff
ff
ff
fe
ff
00
02
00
00
00
00
01
ff
ff
ff
ff
fe
fe
ff
02
ff
ff
fd
01
00
ff
01
fe
fb
02
03
06
fd
00
01
fe
fe
fe
fe
fa
f9
01
fe
fb
00
fc
fd
ff
01
ff
00
fd
fc
00
01
00
ff
02
ff
02
00
01
02
00
fe
ff
fd
ff
03
01
00
fe
fe
00
fe
fc
fd
01
00
ff
00
02
04
00
ff
ff
00
02
03
ff
fd
ff
01
fd
fb
03
00
ff
02
00
ff
04
02
00
00
00
fe
fe
ff
ff
01
01
02
01
04
01
00
ff
01
01
00
01
00
00
ff
01
02
01
ff
00
01
ff
ff
ff
02
03
00
01
01
ff
01
01
01
02
01
00
ff
01
ff
00
00
00
ff
fe
01
01
00
ff
ff
ff
ff
ff
ff
fd
03
00
ff
03
01
00
02
01
01
00
02
03
fe
01
01
02
03
02
00
02
01
fe
00
00
ff
01
02
00
fd
fd
00
fe
fe
00
fe
01
00
fe
00
02
00
01
ff
00
ff
00
fe
fd
00
01
fe
ff
ff
01
fd
fb
fc
02
02
03
04
01
01
03
ff
ff
02
00
ff
00
ff
00
02
00
fe
06
01
fe
02
00
fd
01
01
fc
fd
fe
fe
fd
ff
03
fd
fe
01
02
ff
fe
fb
02
05
01
02
06
04
fe
01
00
01
ff
ff
fc
fd
00
fe
fd
ff
fd
ff
fd
fd
fc
ff
fe
ff
ff
ff
02
fe
fc
03
01
fe
00
ff
02
02
fe
ff
00
00
fc
fd
ff
fb
ff
ff
fc
fc
02
00
ff
fc
fe
00
01
ff
fc
02
fe
fa
fd
00
03
fd
fd
00
04
fe
ff
06
ff
fd
02
fe
fe
00
fd
fd
04
fe
fe
03
fc
fa
00
f9
fb
05
04
02
00
04
03
01
00
03
fd
ff
03
ff
ff
01
00
00
01
ff
00
ff
ff
00
00
fe
ff
00
00
fe
fe
03
fd
00
ff
fe
00
fa
fe
01
ff
fc
fa
ff
ff
fd
00
00
02
fe
fe
00
01
fe
ff
00
fb
01
ff
fd
ff
ff
01
01
02
03
00
fe
ff
fe
00
ff
ff
06
02
ff
02
00
01
fb
02
04
04
00
fe
00
02
00
fc
ff
03
fc
fe
fd
fe
fe
fd
ff
02
00
fc
fc
ff
ff
00
00
02
00
00
01
fe
00
fe
ff
fd
00
01
01
00
01
03
fe
ff
01
04
fe
00
01
01
04
01
ff
ff
00
fe
fe
00
00
04
00
fd
ff
fc
f9
fd
ff
ff
02
fc
fe
03
06
00
00
ff
fb
ff
01
fe
fe
fe
00
00
00
03
01
04
05
05
04
04
06
ff
fd
ff
00
ff
01
04
00
00
fa
fd
ff
06
02
02
04
fe
fd
01
ff
ff
02
01
fd
00
01
ff
fd
fd
fd
fe
fe
fe
fe
fe
fd
03
03
03
04
01
ff
01
fc
fc
fe
01
fe
ff
01
ff
fe
fd
fc
ff
ff
02
01
01
00
01
01
fd
fd
fe
00
ff
fc
fd
02
ff
fd
00
fd
ff
00
fd
fd
02
fe
fd
fd
01
00
fd
fe
04
01
02
00
fe
02
02
fc
ff
00
01
00
01
fc
fd
01
ff
01
fe
ff
00
fd
ff
04
05
ff
fe
02
ff
fe
ff
03
00
ff
01
02
01
fe
fe
ff
01
00
02
00
fe
02
01
01
02
05
03
01
01
01
fd
00
ff
00
fe
fe
fe
01
02
01
ff
01
04
ff
fb
ff
03
fd
ff
01
00
ff
ff
00
02
fd
ff
00
02
00
ff
03
00
fd
06
06
fb
00
ff
fe
01
02
ff
01
ff
fc
01
02
ff
03
ff
fc
ff
ff
00
fe
00
01
fc
ff
01
00
fe
fc
01
ff
fc
ff
ff
ff
fe
00
01
01
00
01
01
ff
ff
03
ff
fc
fd
fb
fd
00
00
00
05
00
03
01
00
fd
fc
fc
fc
fe
fc
fb
02
fd
fe
02
fe
fe
02
03
fe
ff
00
00
fe
ff
ff
ff
03
01
01
02
00
02
fe
ff
02
04
ff
fe
02
00
fd
fc
ff
fe
ff
02
03
01
00
00
00
01
01
01
fd
02
00
00
00
00
ff
01
fd
fd
02
fe
fc
00
fe
01
ff
ff
fb
03
ff
fc
00
03
00
fd
ff
fe
fd
fa
02
ff
04
01
03
01
fc
01
fc
fc
00
00
00
00
01
02
05
01
02
fe
fd
ff
fe
00
ff
00
00
fe
01
04
02
00
00
ff
02
fc
00
02
01
02
01
00
01
ff
00
fd
00
fe
01
fe
05
00
fb
fb
fd
fe
fa
01
fd
ff
02
fd
fd
fe
00
05
ff
04
ff
ff
ff
fc
04
02
fd
fb
00
00
03
fe
fc
03
04
03
ff
fe
fe
03
ff
00
00
01
fe
01
02
00
01
05
02
02
00
00
00
00
00
ff
ff
00
01
fe
ff
01
00
fd
fe
02
ff
ff
fe
00
fe
fd
01
ff
00
01
02
05
02
00
02
fd
03
ff
fb
fe
03
02
02
ff
ff
ff
02
ff
00
ff
fd
ff
00
fe
00
ff
ff
fc
ff
00
00
fe
00
ff
fe
ff
00
01
fd
ff
fc
fc
00
00
03
03
01
03
02
ff
00
01
ff
00
01
fd
fb
fd
00
fe
ff
06
04
ff
fd
fe
fd
fe
00
fe
01
00
00
02
03
02
00
00
06
fd
fb
02
fe
ff
ff
00
00
01
00
00
00
03
fe
fb
00
01
02
fd
fe
03
00
00
00
ff
04
06
02
03
04
ff
03
03
01
02
01
01
01
01
00
01
03
fd
fb
01
fb
fa
fd
03
ff
fb
04
00
fb
01
fd
01
02
02
00
01
01
02
f9
fc
fd
00
00
00
ff
fe
ff
ff
fd
fc
01
02
fc
01
ff
fd
ff
00
01
fd
01
fc
fe
ff
fd
02
01
ff
00
01
ff
01
fd
01
ff
fc
02
fc
fc
fe
fb
fe
ff
ff
00
00
fd
01
00
ff
ff
ff
02
fe
ff
04
01
00
05
00
00
01
fd
00
03
02
00
01
01
fe
00
ff
ff
00
01
fd
00
00
00
fe
fe
02
00
ff
00
fe
01
03
02
02
fe
ff
ff
03
fe
fe
fe
05
02
02
02
03
00
04
00
00
06
02
00
fe
fd
fd
ff
ff
01
ff
fe
07
fe
fe
fe
fe
00
fe
ff
fe
ff
06
05
02
04
04
01
01
03
03
04
01
ff
fe
00
01
fe
01
00
00
02
01
ff
ff
fd
fd
fb
fc
00
ff
fe
fe
fb
fb
ff
fd
00
fe
fe
01
01
fd
ff
00
fe
00
00
fe
02
fd
00
04
03
ff
01
00
fe
fd
00
02
ff
00
02
00
00
fe
fd
fc
fa
01
fd
fb
03
01
fe
fe
00
02
00
03
01
01
00
fd
fc
fc
fc
ff
00
ff
01
00
00
01
00
fc
01
fd
fe
03
01
01
00
02
04
03
00
01
01
01
01
00
00
00
04
00
00
04
03
02
04
02
00
02
fc
fa
fa
00
ff
00
01
fe
ff
fc
fc
00
fd
00
06
fe
00
05
01
fd
fb
00
ff
fd
ff
ff
01
02
01
02
00
01
01
fe
ff
00
00
fe
03
01
fe
01
fd
fb
02
fd
ff
00
ff
ff
03
00
fa
00
02
fe
00
fb
ff
00
ff
ff
ff
02
02
01
01
ff
01
00
ff
fd
01
03
02
ff
ff
ff
02
fe
ff
00
01
00
01
ff
fe
02
00
fe
03
01
00
01
03
00
01
03
01
01
fe
01
ff
fe
01
02
01
00
fd
00
ff
00
fe
fe
02
fe
00
00
ff
01
02
00
fe
fd
ff
fd
ff
01
ff
ff
03
fe
fd
00
fe
fc
fd
fd
00
01
01
02
00
01
00
ff
fe
01
03
ff
01
03
02
fe
01
02
02
ff
03
fe
fc
00
01
fd
00
01
fc
fc
02
ff
fe
02
fe
ff
00
ff
00
00
04
04
ff
02
ff
fc
fb
04
00
fd
00
05
00
01
00
00
fe
00
fe
00
fd
fd
fd
02
02
00
ff
04
01
01
ff
fc
01
fe
ff
fe
fc
ff
fe
f9
fd
00
ff
fe
01
01
fd
01
03
01
fe
fc
01
02
fd
fd
01
01
fe
fd
fe
00
00
ff
fe
fe
fe
01
00
fe
01
ff
fc
ff
02
01
02
fe
ff
01
fd
fe
fb
01
ff
fc
00
00
00
01
00
01
fe
00
00
fc
fc
fe
ff
fd
ff
02
01
07
ff
fe
02
ff
ff
00
ff
fe
02
03
02
ff
02
01
02
00
00
01
00
02
01
fe
00
02
fe
fe
00
03
00
00
00
ff
fe
00
02
ff
ff
01
02
04
03
ff
01
02
00
fe
04
ff
fb
ff
ff
fd
fa
fc
00
fc
fc
fe
02
00
fe
01
ff
ff
fe
03
02
fe
fe
00
ff
ff
02
ff
02
03
ff
02
02
03
01
02
02
04
02
fd
02
02
fc
ff
01
01
00
ff
01
00
ff
ff
ff
ff
02
02
fe
00
04
ff
ff
01
ff
fb
00
fe
fe
ff
fd
fe
ff
02
fb
fb
03
fa
fc
02
ff
ff
01
fe
ff
01
00
ff
02
ff
fe
01
fe
ff
03
00
ff
01
00
fe
02
ff
01
fe
01
fd
fc
00
ff
ff
01
02
fe
fb
04
06
fd
04
00
ff
fe
01
00
ff
ff
ff
00
01
03
03
00
05
05
fb
fd
fe
00
00
00
fd
fe
ff
ff
fe
ff
ff
01
01
04
02
03
01
ff
ff
01
00
ff
00
04
04
fe
ff
01
00
01
02
00
00
00
02
00
01
00
00
00
02
fe
fb
03
02
fe
00
fe
01
04
ff
00
ff
00
ff
ff
fa
ff
04
fc
01
03
fd
04
fd
fd
ff
fe
fe
00
fe
fe
00
ff
00
ff
02
02
05
00
03
00
fc
fb
01
fe
fc
02
02
01
04
01
02
00
00
01
fe
01
ff
fe
01
04
03
00
01
00
fe
fd
fd
01
00
ff
00
02
02
fd
03
01
fe
03
fe
ff
00
02
ff
03
01
02
fe
02
ff
ff
fc
01
03
03
04
fe
fd
02
02
fc
fe
03
00
03
03
01
fd
01
00
fb
fc
00
00
ff
00
00
00
fe
ff
fe
fc
01
fe
00
01
ff
00
01
ff
00
fc
01
01
ff
ff
00
ff
fe
00
fe
fe
ff
02
ff
ff
00
01
00
01
02
00
fe
02
00
ff
00
01
04
00
ff
05
00
fd
01
00
fe
00
01
02
03
06
02
01
01
02
fe
fc
ff
fe
fd
fc
02
00
ff
ff
ff
ff
ff
01
00
00
02
00
03
00
01
04
01
00
00
ff
00
02
02
00
00
01
ff
00
ff
ff
ff
ff
ff
fe
01
01
fd
02
00
00
ff
02
ff
ff
03
02
02
03
03
ff
01
fe
fb
fc
fe
fc
fc
02
03
04
00
00
01
fe
fc
fd
fe
fe
fd
00
fe
00
00
00
00
04
00
fe
03
ff
ff
00
ff
fe
ff
fe
fe
01
ff
01
00
ff
ff
00
02
03
ff
01
03
00
ff
01
01
ff
ff
ff
ff
00
ff
00
ff
ff
ff
00
fe
ff
00
00
01
ff
01
fe
01
00
02
02
00
ff
00
00
01
01
02
00
fe
01
fe
00
00
fe
fe
00
01
00
00
00
00
00
01
00
fd
fe
ff
00
ff
ff
fe
ff
02
01
fe
01
02
01
00
01
fe
00
02
01
02
ff
00
01
ff
ff
02
01
ff
03
00
ff
01
ff
fe
02
01
ff
01
01
01
00
01
04
02
fd
fe
fd
ff
ff
01
ff
fd
fd
00
02
00
00
01
00
00
01
00
fd
ff
fe
ff
01
01
ff
fe
fd
01
01
00
00
ff
01
fe
fc
fd
00
fd
fe
00
ff
00
03
03
01
01
00
00
00
00
01
ff
fd
00
00
fd
fe
03
fc
01
03
01
01
02
03
01
ff
01
00
01
ff
01
06
ff
ff
02
00
01
ff
fd
01
ff
fe
ff
02
ff
01
00
fe
fe
02
ff
01
05
04
03
00
fd
fd
00
fe
ff
02
00
00
00
fd
01
01
02
01
01
00
01
02
ff
fe
01
00
02
00
ff
01
fe
00
ff
fd
ff
01
00
00
01
03
ff
00
01
ff
ff
ff
ff
ff
ff
00
fe
03
00
00
03
02
00
fe
fe
00
00
ff
00
ff
00
fe
01
02
00
00
ff
ff
ff
ff
fe
00
01
01
00
00
ff
00
fd
fd
00
03
ff
00
00
00
00
ff
fe
ff
00
01
01
01
01
01
00
01
04
01
00
02
00
00
ff
fd
fd
02
fe
00
03
fe
01
01
ff
02
03
fc
fd
02
fd
fc
fe
ff
01
01
01
04
01
fe
02
00
ff
00
fd
00
04
00
ff
01
01
02
02
02
00
01
02
00
00
ff
fd
fe
00
01
fe
ff
00
00
00
ff
01
00
03
01
01
02
01
00
01
00
ff
02
01
fe
fe
00
ff
fe
fd
00
01
fe
ff
01
01
00
ff
ff
01
07
00
fb
fd
fe
ff
ff
fd
00
ff
00
03
00
01
04
02
ff
fe
01
05
fd
ff
02
ff
01
02
00
00
ff
ff
fe
fe
01
01
00
fe
fa
00
01
fc
02
fe
fb
ff
00
02
02
00
01
00
fe
ff
fe
01
00
01
02
fe
03
ff
00
ff
ff
fe
ff
01
02
01
00
ff
ff
03
fc
01
02
fb
01
00
fb
00
ff
fe
ff
03
02
fe
02
03
ff
01
01
ff
ff
ff
fc
01
fd
00
ff
00
00
01
01
01
01
ff
00
fc
fb
01
fe
fd
00
01
fe
01
01
fe
ff
03
ff
ff
00
fe
fe
01
02
03
02
fe
fd
ff
fe
ff
00
01
00
01
ff
ff
03
01
02
00
fb
01
00
fb
02
ff
f9
ff
03
03
03
00
03
03
ff
fe
fe
ff
fd
fd
ff
fb
fe
ff
fe
01
fe
fb
fe
00
fa
ff
ff
fd
ff
fd
fc
fd
fc
fa
fb
fd
fe
fe
ff
04
00
01
02
ff
02
01
01
fe
fc
fe
00
fc
00
02
01
03
00
01
ff
04
02
02
02
04
02
fc
fa
ff
00
fe
01
01
03
01
ff
00
ff
ff
01
fe
00
ff
00
00
fe
02
ff
fa
00
03
fe
02
00
ff
ff
01
02
fd
ff
ff
ff
ff
ff
fd
00
ff
ff
02
00
ff
01
fe
00
ff
fd
01
fe
01
00
02
fe
00
fe
fe
00
fe
ff
02
ff
ff
00
00
ff
ff
fe
ff
ff
fe
fd
01
fd
fe
ff
fa
f9
fb
00
fe
ff
fe
ff
fe
00
fe
fe
01
ff
ff
01
03
01
01
01
fd
fe
01
00
02
03
ff
02
04
fe
ff
fe
01
fc
fb
fe
fc
fe
ff
00
00
01
02
00
00
01
ff
00
ff
00
00
fe
fc
02
fd
fe
01
fe
ff
ff
01
fe
01
01
02
01
01
03
00
fe
01
ff
02
ff
03
fe
00
00
fd
fd
02
fe
ff
01
fe
fe
00
fc
f9
fd
01
fe
05
00
fe
02
ff
fb
03
01
01
03
fe
fe
fe
fe
fd
fd
fe
ff
03
00
fe
00
fc
fb
04
ff
00
01
ff
01
ff
fe
ff
fe
01
ff
ff
01
fd
03
01
fb
02
03
fe
03
01
fe
ff
ff
fe
fe
03
fd
00
00
fe
00
ff
fd
00
ff
ff
01
fa
fc
02
fe
fc
01
ff
fd
ff
ff
02
00
01
05
00
00
ff
00
00
03
01
04
04
01
00
ff
02
00
00
00
ff
fe
00
01
01
01
00
fe
01
ff
fb
01
01
fe
03
01
ff
ff
ff
fc
00
00
ff
02
01
fc
04
00
fa
02
fd
fe
fe
fd
ff
01
fe
01
04
ff
00
02
04
05
fe
02
06
01
ff
00
00
fe
fd
ff
00
00
ff
ff
01
fc
02
01
00
ff
00
00
00
ff
ff
02
01
fc
02
01
fd
01
ff
ff
01
02
00
01
02
01
fe
ff
01
03
05
02
03
05
01
ff
01
00
02
00
ff
03
02
ff
fb
fa
fe
01
02
03
02
05
01
01
00
02
ff
00
00
01
03
ff
ff
00
ff
fe
fd
fd
fd
fc
fe
03
ff
01
01
fc
fd
04
ff
ff
02
00
fd
01
01
00
02
fe
ff
03
fd
ff
ff
ff
ff
05
01
fc
03
01
fd
fd
fe
fe
00
02
00
fd
01
01
04
02
01
02
00
fe
01
02
00
00
fd
00
fe
fd
ff
fe
ff
01
03
02
01
fd
01
00
00
fd
fd
01
fe
fd
ff
02
00
00
02
00
02
ff
ff
ff
fe
fc
02
01
fb
00
fd
fb
fe
fd
fc
01
fe
fd
01
fe
01
00
01
01
ff
00
ff
02
01
00
02
fe
ff
02
ff
00
ff
fc
fb
ff
fd
fd
fc
fc
fb
04
01
00
01
00
00
fe
fe
01
02
00
ff
ff
ff
fd
fc
00
fe
04
01
01
00
fd
ff
01
fd
00
01
00
ff
fd
fc
fc
fe
ff
fe
00
ff
ff
00
05
02
fd
00
03
01
00
fe
00
fd
fc
ff
00
00
00
00
02
00
ff
03
fe
fe
00
ff
fe
ff
01
01
03
ff
ff
00
01
00
02
fe
ff
03
fe
fd
00
02
fe
01
fe
fe
fd
00
02
02
02
03
02
fd
02
fe
fd
00
02
01
ff
03
00
00
01
ff
02
04
03
ff
01
01
ff
ff
02
02
01
ff
ff
fe
00
ff
00
fd
fd
02
fd
fe
fe
fc
fe
fe
fd
ff
fe
fe
00
02
fe
01
02
fe
fe
02
02
00
01
01
ff
fe
fd
fe
00
01
ff
02
00
03
01
00
fe
01
ff
02
01
fe
fe
fe
fd
fd
ff
01
01
ff
01
fe
fc
00
fe
ff
01
fd
fb
02
fd
00
00
ff
ff
ff
00
01
ff
00
fd
01
ff
00
02
00
fd
02
02
fd
02
04
01
03
ff
01
00
fe
02
01
ff
02
03
02
04
01
ff
fe
01
fd
fc
fc
01
04
f9
02
03
fb
ff
01
03
01
fb
02
ff
fc
05
ff
fc
01
01
fc
fe
ff
fe
00
00
01
ff
03
00
ff
ff
ff
04
03
fa
ff
ff
fc
03
01
ff
00
ff
fc
ff
fe
fe
fe
fe
ff
fc
01
02
fc
ff
00
fc
fb
06
fc
fc
ff
ff
ff
fe
ff
02
fc
01
03
01
fc
fd
fe
00
fc
fc
fe
fd
ff
01
04
ff
00
01
00
00
fd
fe
01
01
ff
fe
01
01
ff
fd
00
ff
ff
02
00
00
02
01
ff
01
04
02
fe
03
00
fe
02
fb
fe
05
01
00
00
00
fe
03
00
fe
02
fd
fd
ff
00
fe
01
02
03
ff
fe
01
ff
00
ff
03
00
ff
00
01
02
fe
04
05
fd
fe
02
00
fe
ff
01
fc
fc
03
fc
fc
ff
ff
00
ff
00
01
fd
00
ff
fe
fd
01
fd
fe
00
fe
00
04
00
ff
fe
00
02
00
fe
00
06
01
ff
03
03
01
02
01
ff
05
fe
ff
fe
00
05
03
ff
00
04
01
00
ff
01
ff
ff
fd
fd
ff
fe
00
00
fb
00
06
fd
fe
02
fe
ff
fc
ff
fe
fe
05
02
07
fe
ff
03
00
fe
00
02
01
ff
04
03
00
00
03
03
01
01
03
fe
ff
ff
fd
fd
01
02
fc
fd
ff
00
fe
00
ff
01
ff
ff
ff
00
00
01
01
01
00
02
00
01
fd
ff
fe
00
00
01
01
01
01
ff
fd
fe
fe
ff
fe
ff
ff
00
00
00
ff
01
00
01
ff
00
02
01
ff
00
02
00
01
fd
ff
00
fd
fe
00
fe
fe
02
ff
ff
00
01
01
00
01
00
00
01
00
fe
00
ff
00
ff
00
ff
02
02
01
00
01
00
00
01
00
fe
00
fe
ff
ff
00
fe
fc
fe
01
fd
fc
00
00
01
00
fd
02
fe
fe
01
00
01
00
ff
ff
00
fe
fe
fd
ff
ff
03
01
fe
00
01
01
ff
00
01
fe
01
00
01
01
01
02
01
00
01
00
ff
01
01
ff
ff
00
02
00
00
01
ff
03
03
01
00
02
01
00
01
00
ff
00
00
fd
fe
fe
fc
fc
ff
ff
fe
fc
fd
fe
01
ff
00
fe
01
01
00
01
ff
00
00
ff
00
01
fe
fe
02
01
01
00
00
03
00
ff
01
00
00
00
01
fe
00
01
fd
00
fe
fe
01
00
fe
fe
01
fe
ff
01
00
01
01
01
01
02
02
02
00
02
02
00
01
03
00
00
03
00
01
01
02
03
04
01
02
03
02
02
00
00
01
02
00
00
ff
00
01
00
01
00
00
00
00
00
00
ff
02
00
fe
00
ff
ff
ff
ff
ff
fe
ff
fe
fe
02
ff
fd
ff
03
04
fe
00
02
01
00
fe
00
ff
ff
00
00
ff
fe
ff
fd
ff
ff
ff
01
ff
fd
00
00
00
fe
00
01
02
00
00
01
02
02
00
00
fe
01
01
00
00
00
ff
02
ff
ff
02
04
01
fe
00
00
00
ff
01
ff
00
02
02
00
00
00
00
fe
00
fe
01
ff
ff
00
fd
fd
fd
01
fd
fe
01
01
00
ff
fd
01
01
fe
fd
02
ff
fe
ff
01
ff
00
ff
00
00
01
ff
00
01
02
01
00
01
02
ff
ff
06
02
ff
01
03
02
fd
01
02
02
01
ff
ff
ff
ff
ff
ff
ff
01
ff
00
00
fe
fd
02
01
fd
ff
02
01
fe
fe
00
01
ff
fe
02
01
00
00
00
01
01
00
00
fd
fe
01
00
fb
ff
00
01
00
00
01
00
01
ff
01
03
00
00
ff
02
05
00
fe
02
ff
fe
fe
01
01
01
fd
ff
ff
ff
ff
fe
01
00
fe
00
03
03
f9
00
03
fe
fe
00
fd
fd
fe
01
ff
fe
fe
02
01
00
fe
01
00
fe
ff
00
fe
fe
00
ff
00
ff
00
00
ff
ff
ff
00
ff
ff
fe
01
01
01
02
00
00
01
ff
00
ff
fe
fd
ff
00
ff
fd
ff
01
fd
fe
02
02
00
01
02
02
00
00
01
ff
00
fe
fe
01
00
fd
01
00
ff
00
fe
ff
ff
fd
00
00
00
00
01
ff
00
00
00
01
00
00
ff
01
01
00
02
00
fe
02
00
00
01
fd
00
00
ff
00
fe
01
03
ff
fd
02
00
fe
01
00
ff
01
02
01
ff
fe
01
fd
fd
ff
ff
fe
00
00
00
00
01
01
00
ff
02
00
00
00
00
02
ff
02
03
00
fd
ff
fb
ff
ff
fe
00
02
00
fd
00
ff
ff
01
00
00
ff
01
ff
01
00
ff
02
00
fe
fe
ff
02
01
01
00
00
01
00
00
ff
00
00
01
00
ff
00
fe
00
00
fe
02
01
01
00
ff
ff
fe
00
05
ff
fe
02
04
fd
ff
fc
fc
fc
01
fc
fc
00
fe
00
fe
fc
01
ff
fc
ff
02
00
00
03
fe
fe
03
00
00
01
00
00
ff
03
ff
fd
ff
fe
02
02
ff
02
ff
fd
00
00
00
01
01
01
fb
fe
fc
01
04
ff
02
05
02
ff
ff
01
00
fd
ff
ff
ff
00
ff
fe
fe
ff
00
fe
ff
fd
fe
fd
ff
02
00
ff
01
00
ff
01
02
03
00
00
01
01
00
01
ff
fc
01
00
fd
fe
00
ff
fe
00
01
01
00
02
00
ff
00
fe
02
06
04
fe
01
01
fe
fe
fe
01
ff
fc
fc
00
fe
00
ff
00
00
01
00
01
ff
01
01
01
00
ff
ff
fe
00
00
00
02
02
03
00
fe
fe
ff
00
fe
01
00
01
00
01
01
ff
ff
fe
ff
ff
01
00
ff
fe
00
ff
fd
00
fd
fc
fe
ff
02
01
ff
00
00
fe
00
fd
00
00
00
00
fd
ff
00
ff
ff
fe
01
fe
00
00
ff
01
01
03
ff
02
01
00
ff
01
00
02
01
00
03
00
00
03
00
00
ff
ff
ff
01
ff
fe
ff
fe
ff
00
fe
01
07
03
00
00
00
fe
00
ff
fc
fd
fe
fd
fc
ff
01
01
00
02
03
03
fe
00
ff
01
01
02
00
00
01
ff
ff
00
00
ff
00
02
01
01
ff
00
01
00
ff
ff
00
03
02
ff
01
00
01
ff
00
04
fd
fd
ff
fd
00
00
fd
ff
05
02
02
02
01
01
ff
ff
ff
03
00
02
01
ff
01
ff
fe
00
ff
fe
ff
01
00
00
01
ff
02
fe
02
05
00
fc
ff
01
fe
fe
05
01
ff
02
02
00
00
00
ff
fe
00
fe
fe
fe
00
ff
02
00
fc
ff
04
fe
ff
04
ff
ff
01
01
fe
ff
01
fe
00
04
00
02
00
00
00
ff
ff
ff
fe
ff
fe
01
fe
ff
fe
fb
fd
fd
fc
fd
00
01
ff
00
ff
fe
00
fd
01
ff
03
04
00
fe
02
fe
fe
fe
fe
fd
00
ff
fd
01
02
02
02
02
02
02
01
00
01
01
ff
02
ff
04
ff
ff
05
ff
fe
00
fe
03
03
00
ff
ff
ff
01
fe
00
ff
ff
00
00
ff
00
ff
ff
ff
02
00
ff
fd
fd
fe
fc
fe
ff
fd
fd
fe
fb
fd
01
02
01
fe
ff
01
02
01
00
02
fe
ff
ff
fd
fe
ff
fe
fd
fe
ff
fd
fe
04
ff
fd
01
fc
fe
00
fe
00
fe
ff
01
fd
ff
ff
00
ff
fd
ff
00
fe
00
fc
fc
ff
fe
ff
fd
fe
00
02
01
02
02
ff
ff
fe
ff
02
fb
fe
03
fe
03
02
01
00
fc
02
ff
fb
ff
fe
fd
01
05
07
04
05
01
04
01
ff
00
01
ff
01
02
ff
03
02
02
00
fe
01
00
fe
00
fe
fd
fd
00
ff
03
ff
01
04
fe
ff
01
fd
01
ff
01
00
ff
01
ff
01
01
01
06
fe
fe
fe
fc
00
00
03
01
ff
01
00
fe
ff
fd
fe
01
02
02
00
ff
fd
00
fe
00
fd
fe
00
fd
fc
fd
fe
fd
ff
01
03
ff
01
ff
fd
03
03
00
00
ff
fe
fe
02
fe
02
ff
00
ff
fe
ff
00
fd
fe
01
01
01
04
fd
02
02
fd
03
01
00
05
04
fd
01
01
fa
fc
fd
fd
fe
02
02
03
fd
01
03
02
02
02
02
ff
02
01
02
ff
fd
00
01
05
02
06
05
02
02
fd
fd
ff
01
01
ff
01
ff
00
04
ff
ff
04
ff
00
01
fb
ff
fc
fe
fc
ff
00
fd
fe
fd
fe
02
00
fe
00
fd
fc
ff
ff
fd
00
fc
fc
f9
00
ff
01
ff
fd
00
00
fc
fc
fe
ff
00
01
00
fe
fe
02
fd
fd
02
ff
fd
00
fe
01
01
00
ff
02
ff
02
03
01
02
02
02
01
00
01
ff
00
fd
fe
02
fd
00
01
ff
ff
00
01
02
ff
01
00
01
fe
fc
03
01
01
00
03
fe
fe
00
fc
ff
ff
fe
fa
fa
fd
01
f9
fd
02
fc
02
02
ff
ff
02
fd
fe
00
fe
fc
fe
00
fd
fc
ff
fc
00
fd
01
03
03
fe
00
fe
fb
fd
ff
fd
fd
03
ff
ff
00
fc
fe
ff
ff
02
01
01
fe
01
fd
ff
ff
00
ff
00
ff
00
fe
01
01
01
04
ff
fd
fc
fb
fd
ff
fd
03
fe
ff
fd
fe
ff
01
01
ff
02
02
04
00
00
02
fe
ff
00
fd
01
00
ff
00
02
01
02
01
00
03
ff
01
03
04
03
ff
00
01
01
03
03
01
01
00
00
04
01
02
00
00
fc
00
fd
fb
fd
fe
fe
00
00
02
00
fe
01
01
02
03
01
01
02
01
04
01
00
03
02
ff
fc
fc
fc
00
02
fe
03
05
03
01
00
01
ff
fe
fe
00
00
00
03
01
ff
ff
ff
fc
ff
02
01
01
00
fe
fe
fe
fe
fc
fe
00
fc
fd
fd
fe
02
ff
01
01
ff
00
01
01
fe
fe
fe
02
01
ff
00
00
00
ff
00
00
01
05
02
02
00
ff
ff
00
ff
00
01
00
01
02
02
fe
fe
fd
01
00
00
ff
ff
ff
00
fe
ff
01
ff
00
ff
00
00
01
00
00
00
01
01
01
01
01
00
00
01
ff
00
01
00
ff
00
00
01
01
00
00
00
ff
02
00
ff
ff
00
01
00
00
00
00
00
00
00
00
00
00
00
ff
00
ff
00
ff
ff
ff
ff
01
00
ff
00
00
ff
00
01
ff
01
ff
00
ff
00
fe
00
00
ff
00
01
ff
ff
01
00
00
ff
00
00
00
ff
00
01
00
00
00
ff
ff
00
00
ff
02
01
00
fe
ff
00
ff
ff
ff
00
00
00
00
00
01
01
01
01
00
ff
00
00
00
01
00
00
ff
ff
fe
ff
ff
ff
00
01
00
01
ff
fe
00
ff
ff
00
02
02
00
01
02
ff
ff
01
01
00
ff
01
02
02
00
00
ff
ff
00
00
00
ff
00
ff
00
00
00
00
00
00
ff
01
00
00
00
ff
00
00
00
00
01
ff
00
01
00
00
ff
00
02
01
00
ff
ff
ff
ff
00
00
ff
fe
ff
00
ff
01
01
01
00
00
00
00
ff
00
01
00
00
00
01
02
02
01
01
ff
02
00
01
00
ff
01
00
00
01
01
ff
ff
00
ff
01
00
00
01
00
00
00
00
00
00
01
00
00
ff
fe
ff
01
01
00
01
01
ff
00
00
01
00
00
00
02
00
00
00
00
00
ff
01
00
00
01
00
ff
00
00
00
ff
00
00
00
ff
00
00
00
fe
fe
fe
ff
ff
00
00
00
00
00
00
01
00
00
01
00
ff
00
02
01
ff
01
03
ff
00
00
00
00
ff
01
00
00
00
ff
03
fe
00
03
fe
ff
ff
01
ff
00
00
00
ff
ff
00
00
ff
01
ff
ff
02
01
ff
ff
ff
00
ff
ff
ff
01
fe
01
ff
ff
01
01
00
00
02
00
01
ff
02
00
01
01
01
02
ff
ff
01
fe
ff
01
ff
01
01
ff
00
00
ff
ff
00
00
00
ff
ff
ff
01
ff
01
ff
01
01
ff
07
01
ff
01
ff
00
ff
00
ff
ff
ff
01
01
00
ff
00
01
ff
fe
01
02
fe
ff
00
00
ff
ff
01
02
ff
01
01
00
00
00
00
00
00
00
00
00
01
00
ff
ff
fe
01
ff
fe
00
ff
ff
ff
00
fd
00
ff
ff
00
ff
ff
00
ff
01
00
ff
00
ff
ff
ff
00
fe
ff
03
ff
02
02
02
ff
00
00
ff
00
ff
00
00
01
00
00
00
02
03
01
00
00
00
00
ff
ff
fe
ff
ff
00
ff
00
ff
01
ff
00
00
ff
00
ff
00
00
00
ff
fe
00
ff
00
01
ff
ff
00
00
ff
00
01
00
00
ff
00
00
02
01
00
00
00
00
fe
fe
ff
00
ff
01
ff
ff
02
00
00
00
00
00
ff
01
ff
01
00
01
00
ff
00
00
01
ff
ff
fe
fe
fe
00
02
01
ff
02
00
00
ff
01
02
fc
fc
02
07
00
01
01
01
02
02
01
ff
03
01
fd
01
ff
ff
fe
02
00
fe
fe
ff
ff
ff
01
02
01
00
ff
ff
fe
00
fd
01
ff
fb
02
04
01
fe
01
02
01
01
ff
00
fe
fe
00
fd
fd
ff
fd
fb
ff
ff
fc
ff
fe
02
02
00
03
fe
01
01
01
00
ff
fd
fc
fc
03
ff
fc
00
ff
fe
00
02
fd
fe
fe
fd
fb
ff
ff
fc
fe
fe
fd
ff
01
01
03
00
01
02
ff
fe
ff
00
03
02
07
fe
fb
ff
03
00
fe
ff
00
03
01
fd
00
05
03
fd
fb
ff
02
fc
fa
fc
00
00
ff
fd
00
01
fd
fc
fe
fe
fc
fb
fe
00
01
fd
00
ff
fd
00
00
00
fe
fd
02
03
04
02
fd
02
fc
fe
00
00
fe
fe
03
02
ff
02
03
01
ff
01
01
01
ff
ff
ff
01
01
fd
01
01
ff
ff
00
02
02
03
fe
01
02
fe
fc
fc
ff
ff
01
02
ff
01
01
01
ff
ff
fd
ff
00
fe
03
ff
fb
fd
00
00
ff
ff
fc
ff
00
00
fd
fe
00
02
fe
ff
01
00
fd
00
fe
fd
01
ff
fb
fd
ff
00
fb
00
00
fe
04
00
fe
00
03
00
01
fe
ff
02
02
02
03
ff
01
00
fc
fd
03
fe
ff
07
04
02
00
03
00
ff
ff
00
fd
fe
fe
fb
fb
fc
02
ff
fe
01
05
03
ff
fe
fe
ff
fe
fe
fe
ff
fe
01
00
01
fe
ff
01
00
fe
ff
00
00
02
02
01
ff
ff
04
03
fc
ff
01
fd
fd
01
01
fe
ff
01
03
01
fe
ff
01
00
02
fd
fe
fd
02
fe
00
ff
00
fe
ff
00
00
fe
fe
01
02
fe
fa
fb
00
01
fe
fd
ff
ff
fd
fd
fd
fd
fd
01
fe
00
01
fe
fe
00
fe
fe
00
01
ff
00
ff
03
03
01
00
fe
ff
00
ff
02
ff
fd
00
ff
02
01
fc
fe
06
02
ff
fe
01
ff
fe
00
04
00
fe
ff
fe
00
fd
fd
fe
01
00
02
00
fe
00
01
00
00
fe
00
02
02
ff
00
fe
03
03
00
00
02
02
00
01
02
fe
00
01
ff
03
ff
ff
ff
01
00
00
01
02
01
fd
02
03
04
ff
fc
ff
00
fe
ff
fb
fe
00
ff
00
00
fd
fe
ff
fe
fe
ff
01
00
ff
fd
00
ff
05
01
02
00
03
fe
00
fd
fd
01
01
01
02
03
05
00
ff
02
01
04
02
03
03
fe
01
05
00
00
00
00
fe
ff
ff
fe
01
02
01
00
fe
03
00
ff
fd
00
fe
fd
ff
01
fd
fe
ff
ff
00
ff
ff
01
01
01
04
02
00
00
01
fd
fc
ff
01
fe
01
03
01
ff
01
00
ff
fe
ff
fd
00
ff
fc
fc
00
00
01
fd
fe
04
02
fd
ff
fc
fc
03
02
00
fd
00
02
02
00
fe
fe
00
00
ff
ff
03
fe
fc
ff
00
ff
00
fd
ff
03
03
01
02
03
03
01
00
ff
02
ff
fc
fc
00
fc
ff
00
fe
00
03
ff
fe
ff
ff
00
fe
01
01
00
fe
fe
01
01
01
03
00
00
01
03
ff
01
01
03
00
01
04
fe
02
01
00
ff
00
00
00
01
03
ff
01
02
01
01
ff
02
02
01
ff
fc
ff
ff
fe
fe
ff
fd
01
01
02
02
ff
00
ff
00
03
01
02
00
00
fd
ff
fe
01
03
00
01
01
ff
ff
00
fd
ff
ff
ff
fe
00
fe
fd
ff
fa
fe
01
02
fd
01
fd
ff
04
fc
01
00
fb
04
03
04
03
02
07
00
fa
00
fe
fe
fe
fd
02
01
01
fe
00
fc
fc
00
f9
fb
fc
fb
fc
03
01
00
fe
fd
00
fe
02
02
01
02
01
01
01
ff
01
02
02
01
02
01
00
03
04
01
00
02
fe
00
fe
01
fe
fe
ff
01
00
00
fb
fd
00
fc
ff
fd
ff
01
01
04
06
03
04
ff
03
fc
fe
02
00
ff
02
02
fe
00
00
00
fe
01
02
04
03
02
05
00
01
03
ff
02
01
03
04
01
04
05
01
00
fe
00
fc
fc
fd
fc
fe
03
03
fc
04
ff
00
fd
ff
01
01
00
fd
fd
fc
fe
fc
fd
fe
02
02
01
00
00
02
00
01
ff
00
fc
fd
01
01
00
02
02
fe
01
01
fe
02
fe
00
ff
00
ff
00
fe
ff
fe
fc
fd
fd
00
00
01
01
01
00
ff
ff
fd
fe
01
00
fe
ff
ff
fe
00
fb
fe
fe
01
ff
fd
00
fc
fe
01
fe
ff
02
00
ff
ff
fc
00
ff
00
02
01
03
02
00
01
01
01
02
fd
fe
00
ff
fd
ff
01
fd
fe
00
02
03
04
00
04
00
00
ff
ff
00
01
01
01
ff
fe
fc
ff
ff
fe
fe
fd
fc
fe
ff
ff
02
00
00
fd
fd
fd
fd
ff
fc
fd
01
01
ff
fe
00
fc
fd
00
02
03
01
01
00
01
00
fe
ff
00
02
03
fe
fe
00
ff
fc
fd
fe
fe
fe
fe
ff
fe
ff
ff
00
fe
fe
00
fd
fe
fd
fc
02
fe
03
01
01
01
01
00
fd
00
01
02
00
02
fe
fe
01
fb
02
ff
fd
02
03
00
01
fd
03
02
00
01
01
ff
00
fe
00
01
fe
04
01
fc
ff
fb
fd
fc
fd
ff
fe
fd
fd
fe
fe
fe
00
fe
fe
01
fd
ff
00
fe
ff
fe
fe
fe
fa
ff
00
00
fe
fd
ff
fe
00
02
00
ff
01
02
04
03
00
fe
ff
ff
03
ff
01
00
fd
00
fd
02
02
ff
00
ff
fe
02
fe
ff
ff
01
01
02
02
00
01
00
02
fe
01
01
00
ff
ff
01
ff
01
01
01
02
00
00
00
ff
fd
fc
01
00
00
00
02
fe
00
ff
fe
01
ff
fe
00
01
00
fe
ff
fd
02
01
00
ff
ff
ff
00
00
ff
00
01
00
00
00
02
fe
00
00
ff
01
ff
ff
ff
ff
00
00
00
fe
ff
fe
01
00
00
00
00
00
01
ff
00
ff
ff
00
ff
ff
00
02
04
01
00
00
00
fe
ff
00
fc
fd
fd
ff
00
02
fe
ff
01
fd
fe
ff
01
00
00
00
02
00
ff
00
00
00
00
00
ff
fe
ff
ff
00
00
00
00
02
00
01
01
fe
00
01
00
02
02
ff
02
02
fc
fd
fe
ff
fb
fe
fb
f9
fc
fe
00
01
00
ff
ff
01
ff
fe
02
02
02
ff
ff
00
ff
00
00
fe
ff
fe
00
00
ff
fe
ff
fe
fd
ff
ff
01
01
01
fe
ff
00
fe
ff
fe
ff
ff
00
ff
00
00
ff
00
01
ff
00
ff
00
01
00
fe
00
00
00
01
00
ff
00
00
fd
fe
fe
ff
01
00
ff
01
00
ff
00
01
00
00
ff
ff
00
00
fd
fe
ff
02
ff
00
02
00
01
01
01
00
00
ff
00
ff
ff
00
ff
ff
00
ff
01
01
ff
01
02
fe
00
ff
fe
00
00
fe
ff
ff
00
02
02
01
00
01
01
00
01
01
00
ff
00
00
01
ff
00
01
ff
00
01
01
ff
00
01
00
00
00
ff
00
00
01
01
00
00
02
02
01
00
ff
00
00
ff
02
00
fc
ff
ff
ff
00
ff
ff
00
00
fd
fe
fd
00
ff
ff
ff
00
ff
ff
00
01
00
ff
ff
00
00
00
ff
ff
ff
ff
00
00
ff
02
02
00
00
02
03
00
ff
03
00
ff
03
00
ff
01
01
01
ff
00
00
00
00
00
00
01
00
ff
00
00
fe
00
ff
00
01
00
00
00
00
ff
00
ff
ff
00
ff
01
00
ff
01
ff
fe
ff
fe
ff
ff
ff
01
00
00
00
ff
ff
01
ff
ff
00
ff
ff
ff
00
00
ff
01
00
ff
00
01
01
02
02
02
ff
ff
ff
01
ff
ff
00
01
00
00
01
ff
ff
01
00
00
ff
00
ff
00
00
ff
ff
00
ff
01
00
ff
00
ff
fe
00
ff
ff
ff
00
00
ff
ff
fd
fe
fe
ff
00
02
ff
00
00
fe
ff
ff
00
01
01
00
01
00
fe
ff
00
ff
01
01
ff
00
01
ff
ff
00
ff
ff
00
fe
01
01
fe
ff
00
00
00
00
01
01
02
00
ff
fe
01
ff
00
00
01
01
ff
ff
ff
02
01
ff
01
01
01
00
00
00
fe
00
00
ff
00
00
00
02
01
01
01
01
ff
fe
ff
fd
fe
ff
00
00
00
00
ff
ff
fe
00
00
01
ff
ff
01
ff
00
ff
ff
00
ff
00
00
ff
ff
01
fe
fe
ff
ff
ff
00
00
ff
ff
fe
ff
fd
ff
00
01
00
01
01
ff
00
00
01
00
01
01
01
01
ff
ff
00
00
ff
ff
02
00
ff
ff
ff
00
fe
00
03
03
fd
01
03
fd
fe
ff
02
03
01
00
03
ff
ff
fe
04
fe
ff
04
00
00
00
fd
00
00
fe
01
01
00
00
fe
01
03
fe
01
ff
02
ff
ff
04
01
fe
fe
fc
00
ff
fc
fd
00
fd
ff
fc
ff
01
fd
03
00
fd
ff
fe
fe
fc
01
fe
fe
ff
fd
fd
fc
02
01
00
fd
00
fd
ff
ff
ff
01
fe
fd
01
02
fe
05
fe
02
fd
fa
ff
00
fd
ff
01
00
ff
03
01
03
01
00
01
04
02
02
fe
fe
01
fe
fc
ff
fe
fc
fe
02
00
01
03
02
01
01
ff
00
ff
fe
ff
fd
00
02
ff
02
01
fd
00
00
fd
00
00
00
ff
02
02
02
fe
ff
01
00
ff
fe
fc
00
fd
01
ff
00
ff
00
02
00
fe
01
ff
fd
fd
01
01
fd
00
02
01
01
00
fe
01
ff
01
01
02
00
ff
01
ff
01
ff
ff
03
00
02
ff
fe
02
ff
fe
fe
02
ff
ff
02
ff
00
02
01
02
ff
04
00
ff
00
00
00
03
ff
01
00
01
03
fe
00
01
fd
02
02
fd
00
ff
fe
00
00
ff
fc
00
fc
ff
00
ff
fd
01
00
ff
01
fd
ff
02
fe
fe
00
fe
00
ff
00
03
01
fe
01
00
fe
fd
fe
fd
fe
ff
01
00
ff
00
00
fe
00
04
02
01
06
00
01
00
fc
02
00
04
03
02
01
03
01
fd
fd
01
00
ff
ff
ff
00
01
02
05
01
fe
02
02
ff
02
ff
00
03
ff
ff
03
fe
ff
00
00
00
fe
fd
ff
01
01
01
05
01
00
fe
ff
ff
00
ff
fe
ff
ff
fe
fe
fe
01
ff
fe
fe
fe
fe
fd
02
01
02
ff
03
01
fe
00
ff
00
fe
fc
06
fe
fc
03
ff
fc
00
00
00
00
00
00
03
fe
02
00
fe
02
02
01
02
03
04
01
02
01
00
01
ff
ff
fe
01
02
fc
fe
01
ff
fd
02
07
02
00
ff
04
00
01
04
ff
fd
fd
00
ff
01
00
fd
fd
01
fe
ff
03
fc
00
02
fe
00
fd
fe
01
fe
02
03
00
00
03
ff
02
01
00
ff
02
00
00
01
ff
02
00
00
ff
fd
ff
00
fe
00
01
fd
fe
02
fe
fd
03
02
fc
05
02
fd
ff
ff
02
01
fe
02
fe
01
06
00
fe
fd
01
00
00
02
ff
ff
fd
01
ff
fe
00
fe
03
01
03
00
00
fe
ff
ff
01
02
ff
01
fe
ff
01
fc
fc
fd
fc
fd
fd
ff
00
00
fd
ff
00
fc
fb
03
00
00
00
03
02
00
01
01
fe
ff
01
00
fc
00
ff
ff
fc
fc
00
05
01
00
03
00
00
00
00
00
fe
ff
ff
00
00
ff
00
fe
fc
fe
ff
fd
00
01
01
01
00
fd
00
00
fe
ff
00
ff
fd
00
ff
fd
fe
00
ff
ff
00
00
00
00
00
02
03
00
02
01
00
03
00
02
00
04
00
fe
04
02
03
01
01
00
fd
fe
fd
fa
fa
fb
03
03
01
00
01
fe
02
03
01
03
00
00
ff
fc
02
01
fc
04
fd
fd
ff
00
ff
fe
01
02
02
fc
fd
00
ff
fe
00
ff
03
03
04
06
03
02
04
03
05
04
04
02
ff
fc
fd
02
fc
fc
04
04
fd
01
00
fe
ff
01
fb
fc
fe
ff
ff
fe
fe
01
fc
03
00
02
01
01
04
fd
fd
02
02
00
03
fd
fe
fc
fd
fc
fd
03
01
01
00
03
00
ff
01
ff
03
03
03
02
02
ff
ff
00
fe
fc
ff
fc
03
ff
02
00
fd
02
fc
02
02
00
00
02
00
fd
00
02
01
02
02
01
